<unk>	0
<s>	0
</s>	0
▁de	-2.97848
.	-3.2662
▁van	-3.6419
,	-3.679
▁in	-3.86208
▁het	-3.89136
▁en	-3.97688
▁	-4.0374
▁een	-4.13671
s	-4.22018
e	-4.28688
en	-4.49739
▁op	-4.89003
-	-4.94772
▁zijn	-4.97634
▁is	-5.0057
▁met	-5.12489
▁voor	-5.21387
▁te	-5.23152
▁die	-5.30929
▁(	-5.31742
▁"	-5.33795
▁door	-5.38132
▁dat	-5.42203
▁aan	-5.44891
▁als	-5.48067
#	-5.53129
▁werd	-5.53432
▁#	-5.57042
t	-5.6212
▁was	-5.62343
"	-5.67195
▁hij	-5.67457
▁ook	-5.68189
)	-5.69422
n	-5.70439
▁uit	-5.7113
de	-5.72144
d	-5.79604
▁tot	-5.83052
▁er	-5.84092
▁om	-5.91339
▁bij	-5.98745
▁niet	-5.99838
▁deze	-6.00198
:	-6.05577
▁worden	-6.07541
▁wordt	-6.09916
'	-6.10234
▁of	-6.1099
▁naar	-6.16658
▁over	-6.23189
er	-6.23672
▁maar	-6.27077
▁onder	-6.2728
▁dit	-6.29166
▁zich	-6.31698
▁na	-6.31825
in	-6.45848
▁ge	-6.49489
▁jaar	-6.511
▁andere	-6.51903
▁dan	-6.52117
▁ver	-6.53143
▁meer	-6.56371
▁zo	-6.59445
k	-6.60011
▁waar	-6.61873
a	-6.62652
r	-6.64632
▁ze	-6.6473
▁eerste	-6.65283
▁heeft	-6.6655
▁al	-6.69547
▁nog	-6.70766
).	-6.72384
ing	-6.76868
▁veel	-6.77627
▁werden	-6.79747
▁be	-6.80364
▁waren	-6.80364
c	-6.8039
▁'	-6.85849
f	-6.85998
▁eeuw	-6.86117
▁grote	-6.87779
▁hun	-6.89343
▁tussen	-6.89617
▁had	-6.90661
te	-6.91193
;	-6.91688
▁af	-6.92001
l	-6.9286
),	-6.9475
▁hebben	-6.95015
m	-6.95468
▁kan	-6.95966
▁twee	-6.96859
den	-6.96933
▁zoals	-6.96995
▁zou	-6.98153
ten	-6.98595
y	-6.99021
o	-7.00738
▁wel	-7.03736
ge	-7.0659
se	-7.07843
le	-7.10104
p	-7.10234
i	-7.10372
re	-7.13179
g	-7.13611
▁men	-7.17807
▁geen	-7.17939
▁alle	-7.18296
v	-7.18764
▁tegen	-7.19137
▁land	-7.19616
▁nederland	-7.20066
▁18	-7.21453
▁echter	-7.21929
▁–	-7.23211
b	-7.23225
us	-7.23998
▁-	-7.24327
▁stad	-7.25132
",	-7.25466
▁tijd	-7.26307
▁deel	-7.26625
▁aantal	-7.27819
▁jaren	-7.27967
▁nieuwe	-7.27992
ken	-7.28352
▁kunnen	-7.28623
el	-7.29205
".	-7.29498
▁1	-7.30523
▁haar	-7.31056
▁tweede	-7.312
wel	-7.31474
▁zij	-7.32038
▁volgens	-7.34979
ig	-7.35047
op	-7.35818
al	-7.36618
▁plaats	-7.36719
heid	-7.40228
ers	-7.41014
▁v	-7.41335
▁ter	-7.41715
be	-7.43335
ver	-7.43383
st	-7.43941
ste	-7.44295
▁toen	-7.44909
▁later	-7.46131
▁wat	-7.47476
z	-7.48785
u	-7.49019
▁staat	-7.49059
▁ten	-7.49083
▁verschillende	-7.49119
▁toe	-7.49519
h	-7.5009
▁kwam	-7.51583
▁partij	-7.51728
▁wereld	-7.52004
▁omdat	-7.52149
▁vooral	-7.5226
▁sinds	-7.52405
▁binnen	-7.52946
uit	-7.53326
w	-7.53505
▁drie	-7.54785
▁hem	-7.55077
▁vanaf	-7.55469
▁b	-7.55961
tijdens	-7.55995
or	-7.56327
ische	-7.56965
▁vaak	-7.57408
ma	-7.57668
▁gebruikt	-7.57671
▁hoe	-7.57819
▁a	-7.57963
▁groot	-7.58142
▁naam	-7.58425
ra	-7.59328
▁enkele	-7.59848
▁genoemd	-7.59898
▁werk	-7.60141
ne	-7.60568
▁16	-7.61938
la	-7.64589
ve	-7.64734
▁re	-7.64753
▁d	-7.6541
▁weer	-7.65475
▁s	-7.65843
▁grootste	-7.67482
▁verder	-7.67638
▁per	-7.68321
▁leven	-7.68337
▁alleen	-7.68444
der	-7.68883
▁samen	-7.6951
▁nederlandse	-7.69629
ur	-7.70041
▁bekend	-7.70349
▁eigen	-7.70607
eren	-7.71199
gen	-7.71267
▁17	-7.71967
x	-7.72059
na	-7.72827
▁15	-7.74132
on	-7.74399
▁f	-7.74593
/	-7.74773
▁rond	-7.75197
es	-7.7533
len	-7.75588
▁terug	-7.76174
ro	-7.76727
ta	-7.77638
an	-7.78353
▁laatste	-7.78888
")	-7.79946
▁c	-7.80005
▁water	-7.8001
▁3	-7.80013
▁periode	-7.80415
▁zelf	-7.81013
▁k	-7.82013
is	-7.8307
▁waarbij	-7.83613
▁steeds	-7.84774
ia	-7.84836
▁on	-7.85023
▁kon	-7.85255
di	-7.87149
▁vier	-7.87651
atie	-7.87819
▁daar	-7.87844
ti	-7.88065
▁landen	-7.88131
▁staten	-7.88514
to	-7.88875
▁ongeveer	-7.89035
ter	-7.89041
mo	-7.89989
▁mensen	-7.90083
land	-7.90328
▁maken	-7.90542
▁nu	-7.90798
il	-7.90904
me	-7.91205
ingen	-7.91496
▁noord	-7.9296
▁m	-7.9314
▁("	-7.93451
ie	-7.93507
aan	-7.93801
ven	-7.93842
▁komen	-7.94567
▁bijvoorbeeld	-7.95198
▁zuid	-7.95216
as	-7.95406
▁4	-7.95608
ar	-7.96028
▁europese	-7.96213
▁bevolking	-7.96747
▁miljoen	-7.97085
▁the	-7.97429
▁duitse	-7.9778
ck	-7.98323
▁kreeg	-7.98454
man	-7.98765
▁ging	-7.99268
▁her	-7.99422
▁la	-7.99769
▁mogelijk	-7.99943
▁belangrijke	-8.00062
▁gebied	-8.00516
▁begin	-8.00841
ul	-8.00994
▁i	-8.01096
j	-8.01169
▁taal	-8.01766
▁n	-8.02363
▁ont	-8.02571
▁kunst	-8.02835
▁groep	-8.03038
▁oorlog	-8.03068
▁bestaat	-8.03127
▁ma	-8.03339
▁2	-8.04043
ige	-8.04126
th	-8.04259
▁rijk	-8.04275
▁dus	-8.04441
at	-8.04698
▁hadden	-8.04951
▁muziek	-8.05138
▁p	-8.05139
ch	-8.05423
▁20	-8.0555
et	-8.05588
▁kerk	-8.06043
▁koning	-8.06361
je	-8.06546
▁zeer	-8.06833
▁komt	-8.08411
▁g	-8.08679
ha	-8.08872
va	-8.08929
▁pas	-8.09336
no	-8.0985
▁hitler	-8.09906
▁eerst	-8.09935
▁elkaar	-8.10155
▁ligt	-8.10245
co	-8.10249
▁soorten	-8.10353
▁10	-8.10403
lo	-8.10473
▁mee	-8.10493
▁zee	-8.1112
▁één	-8.11616
▁meeste	-8.11794
▁belangrijkste	-8.11828
▁gebruik	-8.11945
▁franse	-8.11965
é	-8.12035
ke	-8.12041
▁(19	-8.12398
▁elk	-8.13016
▁eind	-8.13247
▁sterk	-8.13507
▁duitsland	-8.13655
▁via	-8.13672
▁belgië	-8.13902
▁maakte	-8.14967
▁werken	-8.15572
sch	-8.15656
do	-8.15969
▁vele	-8.16109
▁europa	-8.16393
▁geschiedenis	-8.16483
da	-8.16639
▁verenigde	-8.17041
▁man	-8.17126
ster	-8.17284
▁hier	-8.17339
▁sp	-8.17655
um	-8.17662
▁hoofd	-8.17879
eerde	-8.17972
▁vormen	-8.18201
▁frankrijk	-8.18682
▁5	-8.19152
ik	-8.19364
ij	-8.19489
▁christelijke	-8.19635
▁buiten	-8.19763
▁vorm	-8.20533
▁kamer	-8.20597
▁daarnaast	-8.21106
▁naast	-8.2116
▁dag	-8.21238
▁regering	-8.21407
▁boven	-8.21504
▁6	-8.21596
nen	-8.21839
▁der	-8.22144
▁rol	-8.22257
isme	-8.2245
it	-8.22455
▁achter	-8.22564
▁waardoor	-8.22999
tie	-8.23339
▁sommige	-8.23517
▁vrij	-8.23926
ri	-8.24098
▁minder	-8.24302
▁politieke	-8.24363
▁moest	-8.24661
2	-8.25248
ci	-8.25405
▁nieuw	-8.25544
▁bestaan	-8.25742
men	-8.25794
▁zonder	-8.25946
▁19	-8.26025
▁zouden	-8.26258
bo	-8.26357
▁talen	-8.26544
chr	-8.26649
▁invloed	-8.26793
▁zelfs	-8.269
ca	-8.27346
▁o	-8.27396
of	-8.27508
▁ca	-8.27644
▁oude	-8.27722
id	-8.27818
▁macht	-8.27824
▁gaan	-8.2817
▁ra	-8.28216
▁mei	-8.28876
ed	-8.28964
▁sa	-8.29101
▁le	-8.29444
▁januari	-8.29728
▁ro	-8.29933
▁leden	-8.29964
▁slechts	-8.30297
▁gemaakt	-8.30647
os	-8.30816
▁waarvan	-8.30918
▁aarde	-8.30962
wijl	-8.3104
zen	-8.31115
ag	-8.31278
baar	-8.31364
▁goed	-8.31397
▁moet	-8.32904
aal	-8.32989
▁co	-8.33113
▁beide	-8.33281
ka	-8.33296
the	-8.33522
▁soms	-8.33956
▁ontstaan	-8.34138
ot	-8.34377
▁basis	-8.34542
▁ar	-8.34661
▁ontwikkeling	-8.3473
▁7	-8.34792
▁meestal	-8.35273
li	-8.3533
▁we	-8.35335
▁uiteindelijk	-8.35543
om	-8.35944
▁mo	-8.35971
▁bo	-8.36032
▁enige	-8.3625
▁dood	-8.3641
eerd	-8.36734
3	-8.36778
▁14	-8.37168
▁ha	-8.37174
▁sch	-8.37232
▁einde	-8.37348
▁begon	-8.37547
em	-8.37664
▁midden	-8.38052
isch	-8.38234
▁gezien	-8.38322
▁kleine	-8.38353
ce	-8.39481
▁weg	-8.39859
ad	-8.40559
go	-8.40661
▁net	-8.408
0	-8.40856
▁snel	-8.41064
▁huidige	-8.41117
▁gemeente	-8.41404
▁meest	-8.4143
▁du	-8.41748
ba	-8.41909
po	-8.42142
▁inwoners	-8.42325
ni	-8.42432
af	-8.42574
▁vijf	-8.4304
▁8	-8.43174
pen	-8.43233
▁bleef	-8.43413
▁12	-8.43542
▁nam	-8.43681
▁name	-8.43688
▁wereldoorlog	-8.43879
▁t	-8.43951
ze	-8.44194
ist	-8.44449
▁oost	-8.44803
ut	-8.44866
recht	-8.44884
▁amerikaanse	-8.44969
ja	-8.45213
▁hoog	-8.45909
▁juli	-8.46876
art	-8.46988
am	-8.47073
sen	-8.47093
▁jaartelling	-8.4733
▁god	-8.47874
▁lang	-8.48419
▁onderzoek	-8.48442
▁licht	-8.48595
▁vond	-8.486
▁zien	-8.48675
▁boek	-8.48797
sa	-8.48902
▁economische	-8.49011
▁volgende	-8.4906
end	-8.49067
▁daarmee	-8.49111
▁algemeen	-8.49173
ende	-8.49486
▁provincie	-8.49566
▁vanwege	-8.49631
▁bekende	-8.50179
▁daarna	-8.50293
▁natuur	-8.50429
▁keizer	-8.50462
tijd	-8.50538
pa	-8.50555
▁con	-8.50713
voor	-8.50805
het	-8.50971
▁gaat	-8.51118
▁steden	-8.51182
ai	-8.51778
▁keer	-8.5194
▁sint	-8.52039
sp	-8.52111
▁kwamen	-8.52118
▁derde	-8.52236
vi	-8.52365
▁maart	-8.52379
▁geweest	-8.52599
tische	-8.52741
▁h	-8.52767
ler	-8.52785
▁internationale	-8.52834
▁gevolg	-8.52853
ir	-8.53071
van	-8.53082
▁west	-8.53334
lijk	-8.53434
▁vinden	-8.53621
▁daarom	-8.53664
▁leger	-8.53707
▁president	-8.53865
▁9	-8.53878
▁grond	-8.53941
▁juni	-8.53973
▁13	-8.54289
ion	-8.54325
ton	-8.54401
ën	-8.5444
▁april	-8.54476
ho	-8.54615
▁jan	-8.5462
▁december	-8.54648
mp	-8.54779
▁l	-8.55162
▁politiek	-8.55476
▁so	-8.55478
▁parijs	-8.55519
▁staan	-8.5565
▁bijna	-8.56067
▁po	-8.56111
▁tijden	-8.56246
ium	-8.56365
▁hand	-8.56834
▁literatuur	-8.56966
▁nationale	-8.57024
jes	-8.57033
▁oud	-8.57144
elijk	-8.57226
val	-8.57307
▁zon	-8.57376
▁oktober	-8.57448
mi	-8.57508
▁hen	-8.57518
br	-8.57576
▁amsterdam	-8.57621
▁km	-8.57898
▁altijd	-8.57938
stad	-8.58105
▁wil	-8.58237
▁bepaalde	-8.58251
▁even	-8.58256
▁st	-8.58293
▁mede	-8.58425
▁zal	-8.58444
ier	-8.58486
▁weinig	-8.58519
▁toch	-8.58907
▁hoge	-8.59051
▁ka	-8.592
▁eerder	-8.59686
we	-8.597
▁noorden	-8.59774
im	-8.59936
tal	-8.60301
▁dagen	-8.60457
00	-8.60636
▁11	-8.60738
▁wilde	-8.60768
▁meter	-8.60809
▁göring	-8.61431
▁minister	-8.61485
▁wie	-8.6156
▁koninkrijk	-8.61801
schap	-8.62054
▁onderwijs	-8.62066
▁school	-8.6221
▁w	-8.62288
▁moderne	-8.62336
▁gaf	-8.62466
▁verkiezingen	-8.62491
▁kabinet	-8.62684
per	-8.63118
ling	-8.63152
bi	-8.63246
▁woord	-8.63369
wa	-8.63429
▁zuiden	-8.63432
▁diverse	-8.6382
over	-8.63842
au	-8.63955
▁moeten	-8.64245
▁stijl	-8.64371
▁spelen	-8.64594
▁september	-8.6462
ië	-8.6472
▁se	-8.64726
▁lange	-8.64781
▁bouw	-8.64991
▁middel	-8.65134
▁vlaamse	-8.65146
ek	-8.65258
ap	-8.65284
si	-8.65448
ker	-8.65495
▁waaronder	-8.65538
uw	-8.65653
▁huis	-8.65709
▁vader	-8.66013
▁schreef	-8.6607
▁si	-8.6641
▁konden	-8.66575
▁vlaanderen	-8.66965
6	-8.66995
ius	-8.67045
▁di	-8.67118
▁nederlands	-8.67175
ly	-8.67249
▁geven	-8.67338
ering	-8.67619
wetenschappelijk	-8.67863
▁zoon	-8.67869
▁lo	-8.68133
▁me	-8.68286
▁opnieuw	-8.68355
▁euro	-8.68542
ale	-8.68544
dat	-8.68558
▁ontstond	-8.68588
nadat	-8.68657
▁stond	-8.68805
▁namen	-8.6883
io	-8.68833
▁recht	-8.6898
ga	-8.6899
bu	-8.68993
nt	-8.69153
pi	-8.69416
▁geheel	-8.69504
elijke	-8.69513
1	-8.69669
▁brussel	-8.69736
▁liet	-8.69743
▁vrouwen	-8.69979
ren	-8.6998
4	-8.70105
ko	-8.70826
▁partijen	-8.70832
▁november	-8.70916
▁leiden	-8.70945
▁doel	-8.71014
▁ander	-8.71719
werk	-8.71803
un	-8.72032
▁mens	-8.72073
▁gebieden	-8.72125
amp	-8.72234
▁as	-8.72387
▁doen	-8.72433
berg	-8.72555
▁park	-8.72614
▁parlement	-8.72771
▁pro	-8.72772
▁dezelfde	-8.72852
▁beschouwd	-8.73117
▁economie	-8.7324
▁lucht	-8.73476
▁wet	-8.73536
▁lid	-8.73582
▁cultuur	-8.73661
▁laten	-8.73977
vo	-8.74067
▁centrum	-8.74098
▁waarschijnlijk	-8.74205
▁ru	-8.74211
▁vervolgens	-8.74641
ssen	-8.74683
▁ex	-8.74725
▁do	-8.74813
▁belgische	-8.7496
▁tegenwoordig	-8.75113
ant	-8.75354
▁zodat	-8.75422
▁hele	-8.75612
▁ta	-8.75614
heden	-8.75865
▁ii	-8.75945
weg	-8.76077
ü	-8.76125
▁vast	-8.76261
eg	-8.76673
▁beeld	-8.76777
▁delen	-8.76809
▁won	-8.77115
aar	-8.77471
tevens	-8.77594
▁kennis	-8.77635
sel	-8.77711
min	-8.77927
▁waarmee	-8.78292
▁duidelijk	-8.7832
eel	-8.78475
▁frans	-8.78906
▁mag	-8.79084
▁moment	-8.79181
mer	-8.79404
▁ruim	-8.79421
▁voorbeeld	-8.79456
gebied	-8.7958
▁je	-8.79738
▁new	-8.79757
▁daarbij	-8.79853
pe	-8.80062
ica	-8.80246
▁nooit	-8.80274
▁druk	-8.80286
▁opgericht	-8.8031
▁leidde	-8.80385
bouw	-8.80388
’	-8.80721
▁universiteit	-8.80766
met	-8.80795
▁doordat	-8.80802
▁augustus	-8.80962
he	-8.81084
▁westen	-8.81087
▁kinderen	-8.81175
isten	-8.81396
gi	-8.81576
▁onafhankelijk	-8.81642
bare	-8.81671
aat	-8.81691
▁lijst	-8.81693
▁gelijk	-8.81709
▁to	-8.81731
▁li	-8.81787
gel	-8.81827
5	-8.81917
▁direct	-8.82097
voornamelijk	-8.82307
▁heel	-8.82328
▁fa	-8.82335
50	-8.82419
▁sovjet	-8.82529
▁leiding	-8.82662
▁rivier	-8.82936
▁mi	-8.83169
▁systeem	-8.83235
▁liggen	-8.83242
▁langs	-8.83444
▁februari	-8.83445
zo	-8.835
▁titel	-8.83574
▁antwerpen	-8.83617
▁groepen	-8.84029
▁iets	-8.84162
▁grondwet	-8.84163
9	-8.84345
ine	-8.84399
huis	-8.84434
▁belangrijk	-8.8461
▁strijd	-8.8462
▁sport	-8.84939
▁25	-8.85176
▁film	-8.85182
▁da	-8.85306
▁2006	-8.85312
▁bal	-8.85388
▁jo	-8.85486
▁voort	-8.85523
▁oosten	-8.85656
▁2002	-8.86035
▁pe	-8.86151
za	-8.86205
ak	-8.86368
▁familie	-8.86629
▁wanneer	-8.86959
▁grens	-8.87003
ef	-8.87029
▁zaken	-8.87044
durende	-8.87074
▁republiek	-8.87093
dra	-8.8714
▁soort	-8.87156
nes	-8.87169
▁nationaal	-8.87289
▁manier	-8.87558
▁eiland	-8.87584
▁2010	-8.87704
▁he	-8.87719
▁romeinse	-8.8777
▁geval	-8.87838
▁zetels	-8.879
▁unie	-8.87904
taal	-8.88063
kt	-8.88102
tu	-8.88102
spel	-8.88252
▁italië	-8.88561
▁ja	-8.88622
▁maan	-8.8863
▁windows	-8.88641
onder	-8.88648
▁geboren	-8.88709
pro	-8.88746
▁nodig	-8.88885
▁hoofdstad	-8.88923
ologie	-8.88987
▁willem	-8.89128
▁constantijn	-8.89376
▁2007	-8.89384
▁maakt	-8.89579
▁tien	-8.89596
▁gehouden	-8.89604
ry	-8.897
ner	-8.89744
▁beweging	-8.898
▁kern	-8.89912
▁nemen	-8.89949
ger	-8.90348
▁ho	-8.90583
▁britse	-8.90813
0.000	-8.91033
66	-8.91092
▁helft	-8.91103
▁pa	-8.91219
▁zogenaamde	-8.91344
▁kent	-8.91405
▁programma	-8.91555
▁bovendien	-8.91595
▁handel	-8.91683
▁geschreven	-8.92093
▁rijn	-8.921
▁kort	-8.92297
mon	-8.92566
con	-8.92575
tra	-8.9271
▁vrijwel	-8.9273
▁anders	-8.92748
▁ko	-8.9276
▁positie	-8.92814
▁planten	-8.92998
▁stads	-8.93027
sche	-8.93052
.000	-8.93196
▁ke	-8.93234
punt	-8.93531
▁regio	-8.93556
▁blijven	-8.93618
ic	-8.93664
▁21	-8.93692
▁vlak	-8.93793
ding	-8.93958
▁wetenschap	-8.94061
▁meerdere	-8.94144
▁vrouw	-8.9424
son	-8.94318
amerika	-8.94409
▁relatief	-8.94434
stand	-8.94693
ac	-8.947
-19	-8.94855
her	-8.94882
ook	-8.94886
▁vol	-8.95051
▁san	-8.95107
▁30	-8.95139
▁vi	-8.95175
▁houden	-8.95202
tre	-8.95309
▁zin	-8.95651
▁belang	-8.95673
▁opge	-8.95736
▁kl	-8.9588
▁loop	-8.95994
▁hoogste	-8.96037
licht	-8.96114
sta	-8.96159
▁steun	-8.96213
▁am	-8.96239
▁term	-8.9627
▁raad	-8.96444
▁ba	-8.96465
▁energie	-8.96488
▁maastricht	-8.96522
▁mar	-8.96582
eert	-8.96644
zie	-8.96697
▁sociale	-8.96722
▁ni	-8.96791
▁aanvankelijk	-8.96979
▁totaal	-8.97031
▁eu	-8.97273
▁j	-8.97307
▁gebouwd	-8.97309
▁no	-8.97356
▁organisatie	-8.97612
▁wegen	-8.97917
▁daarvan	-8.98099
▁par	-8.98155
▁plaatsen	-8.98336
kant	-8.98349
▁r	-8.98528
▁jonge	-8.9854
▁gekozen	-8.98573
tje	-8.98982
ging	-8.98999
▁krijgen	-8.99113
up	-8.99136
ser	-8.99216
(	-8.99242
▁militaire	-8.99267
tri	-8.99426
▁x	-8.99474
▁an	-8.99548
▁deed	-8.99663
▁gebaseerd	-8.99725
hi	-8.99788
▁moeder	-8.99902
▁paus	-9.00056
▁klimaat	-9.00074
res	-9.00229
jarige	-9.00344
10	-9.00444
▁top	-9.00494
▁vroeg	-9.00499
istische	-9.00527
▁dieren	-9.00872
▁gemeenschap	-9.00898
tor	-9.00902
gang	-9.00955
vel	-9.0097
▁geworden	-9.01012
▁onderdeel	-9.01175
ings	-9.01178
ol	-9.01187
▁2012	-9.01307
fa	-9.01335
▁and	-9.01435
stra	-9.01464
ron	-9.01639
▁versie	-9.01748
▁bestuur	-9.01962
ard	-9.02029
▁ruimte	-9.02041
▁gent	-9.02074
che	-9.02139
▁stand	-9.02266
▁rest	-9.02596
lijn	-9.02631
▁latere	-9.02887
als	-9.02976
▁hiervan	-9.02998
pel	-9.03382
▁goede	-9.03853
net	-9.03964
▁richting	-9.04057
▁go	-9.04084
▁spinnen	-9.04362
&	-9.04593
▁tekst	-9.04659
ff	-9.04708
▁nazi	-9.04774
18	-9.04782
▁korte	-9.04992
▁stelde	-9.0517
▁val	-9.05199
▁klein	-9.05214
▁betekent	-9.05215
▁zes	-9.0529
▁car	-9.05352
unie	-9.05432
▁oceaan	-9.05501
▁bleek	-9.05501
▁2008	-9.05516
gt	-9.05567
▁mor	-9.05628
7	-9.05731
▁voorbeelden	-9.05929
even	-9.05932
▁kust	-9.06151
▁volledig	-9.06166
▁slag	-9.06252
jo	-9.0627
die	-9.06304
▁gemeenten	-9.0644
▁von	-9.06653
▁anderen	-9.06744
lang	-9.06886
▁behoren	-9.06947
▁haarlem	-9.06962
▁voorkomen	-9.07022
▁oudste	-9.07059
▁massa	-9.07158
od	-9.07177
▁volgde	-9.07195
▁hierdoor	-9.07253
▁2000	-9.07296
▁pre	-9.07502
▁grotere	-9.0759
▁groei	-9.0759
kerk	-9.07662
ts	-9.07782
▁napoleon	-9.07823
▁speelde	-9.07919
▁kop	-9.0799
ring	-9.08086
▁klassieke	-9.08345
lin	-9.08346
▁tra	-9.08417
▁zeven	-9.08461
▁bestond	-9.08499
air	-9.08516
ip	-9.08655
▁wist	-9.08848
▁laat	-9.09013
▁2011	-9.09029
hu	-9.09062
king	-9.09089
▁lu	-9.09168
▁verenigd	-9.09312
lu	-9.09326
▁hoogte	-9.09382
▁maas	-9.09421
ber	-9.09591
▁israël	-9.09737
▁gesproken	-9.0983
▁john	-9.09901
staat	-9.0991
▁lag	-9.10096
▁vertegenwoordig	-9.10329
▁(18	-9.10447
▁gegeven	-9.10644
programma	-9.10793
raad	-9.1083
▁ontwikkeld	-9.1086
▁volgen	-9.10881
▁namelijk	-9.10882
▁joden	-9.10927
▁ri	-9.10961
▁eveneens	-9.11108
▁ondank	-9.11214
▁2009	-9.11428
tte	-9.11458
▁plan	-9.11579
▁ervan	-9.11638
▁leeftijd	-9.11648
▁sta	-9.11664
▁daardoor	-9.11738
▁filosofie	-9.11747
▁vrije	-9.11751
▁gevormd	-9.12025
▁paar	-9.12047
▁computer	-9.12199
▁overheid	-9.12258
maal	-9.12462
▁elementen	-9.12543
▁for	-9.12588
ys	-9.12619
▁gevonden	-9.12636
▁york	-9.12637
▁engeland	-9.12642
▁berg	-9.12706
cul	-9.1277
").	-9.12791
les	-9.12796
▁bevindt	-9.12945
▁personen	-9.12952
▁leer	-9.13031
▁finale	-9.13171
ï	-9.13355
▁mannen	-9.13429
▁markt	-9.13444
▁nederlanden	-9.13486
▁bar	-9.13558
▁olympisch	-9.13565
▁bracht	-9.13696
straat	-9.14024
▁officiële	-9.14282
▁gelegen	-9.14447
▁jaarlijks	-9.14511
dag	-9.14577
▁enkel	-9.14578
_	-9.14707
▁erg	-9.1472
▁bas	-9.14796
handel	-9.14818
▁paul	-9.14901
▁gebruiken	-9.15107
▁algemene	-9.15133
▁hierbij	-9.15158
rijk	-9.15192
▁proces	-9.15257
oc	-9.15272
▁sterke	-9.15273
▁griekse	-9.15331
8	-9.15389
▁londen	-9.15451
▁functie	-9.15512
lt	-9.1561
▁informatie	-9.15623
▁aanwezig	-9.15705
▁brengen	-9.15714
▁historische	-9.15729
▁meerderheid	-9.15767
▁hoger	-9.15909
▁los	-9.15917
▁dr	-9.15924
water	-9.15927
iteit	-9.15954
▁ab	-9.16394
ok	-9.16427
▁geeft	-9.16685
▁vormt	-9.1671
▁dienst	-9.16734
▁2005	-9.16742
▁geld	-9.16857
delen	-9.16924
▁zeggen	-9.17048
rie	-9.17136
▁bepaald	-9.17206
tan	-9.17335
▁lokale	-9.17369
▁gebracht	-9.1766
▁punt	-9.17838
wet	-9.17892
▁orde	-9.17901
rij	-9.17941
▁centrale	-9.17953
▁omgeving	-9.17974
plaats	-9.17982
llen	-9.18061
▁22	-9.18139
ting	-9.18164
▁volks	-9.18251
deel	-9.18253
▁revolutie	-9.18264
kracht	-9.18317
▁gevestigd	-9.18343
▁kleur	-9.18363
▁geldt	-9.18408
▁rechts	-9.18486
▁geloof	-9.18598
meer	-9.18612
▁bi	-9.18641
ki	-9.1872
▁har	-9.18797
ppen	-9.18871
uren	-9.18904
▁pi	-9.1893
▁betekenis	-9.18998
▁engels	-9.19071
del	-9.19093
▁auto	-9.19104
ijn	-9.19152
groep	-9.19153
▁voorzitter	-9.19205
▁middeleeuwen	-9.19327
▁centraal	-9.19327
▁bron	-9.19401
ving	-9.19543
▁radio	-9.19597
▁afstand	-9.19683
▁kritiek	-9.1976
lijke	-9.20009
▁haven	-9.20016
▁inter	-9.20164
▁limburg	-9.20199
halve	-9.20252
▁zag	-9.20401
▁punten	-9.20458
▁waarna	-9.20485
▁wedstrijd	-9.20588
▁feit	-9.20667
▁2014	-9.20671
▁anti	-9.20722
▁maanden	-9.20863
▁kilometer	-9.20988
▁bijzonder	-9.20992
▁ga	-9.2108
aren	-9.21161
▁gedaan	-9.21185
▁open	-9.21185
▁jezus	-9.2166
▁internationaal	-9.21661
▁opgenomen	-9.21677
dr	-9.21697
▁vraag	-9.217
▁actief	-9.21701
▁ontwikkelde	-9.21859
▁vervoer	-9.21887
▁reeds	-9.22
▁ju	-9.22046
▁buitenlandse	-9.2207
▁begonnen	-9.2207
▁waarde	-9.22077
▁verspreid	-9.2211
▁formula	-9.22337
▁stemmen	-9.22356
▁2019	-9.22357
leg	-9.22405
▁studie	-9.22461
acht	-9.22502
pp	-9.22531
du	-9.22561
▁50	-9.22639
▁vroege	-9.22641
ft	-9.2269
▁gu	-9.22786
▁landbouw	-9.22793
▁im	-9.22921
▁beter	-9.22925
▁kant	-9.22978
gr	-9.22982
▁hof	-9.22992
▁grotendeels	-9.23018
▁verloren	-9.23019
▁su	-9.23061
▁club	-9.23133
vol	-9.23141
▁foto	-9.23178
ep	-9.2335
bel	-9.23429
▁staats	-9.23509
iden	-9.23611
▁moeilijk	-9.23705
▁spel	-9.23725
▁tegenstelling	-9.23778
nd	-9.23857
▁bestaande	-9.23932
systeem	-9.2402
▁indeling	-9.24105
▁zichzelf	-9.24115
ui	-9.24202
▁katholieke	-9.24241
▁succes	-9.24344
▁uitge	-9.2438
▁el	-9.24388
▁min	-9.24535
▁verschillen	-9.24564
gaan	-9.24575
▁acht	-9.24643
ud	-9.24744
▁noemde	-9.24745
age	-9.2484
▁ad	-9.24881
mar	-9.24941
ment	-9.24963
▁viel	-9.2497
▁boeken	-9.25091
▁artikel	-9.25108
▁standaard	-9.25117
',	-9.25202
▁hetzelfde	-9.25298
▁hiermee	-9.25443
▁software	-9.25445
▁=	-9.25453
▁langer	-9.25482
▁vogels	-9.25505
▁groter	-9.25579
▁insecten	-9.25594
▁voormalige	-9.25676
bij	-9.25691
oe	-9.25791
▁verdeeld	-9.25795
▁temperatuur	-9.25902
▁zeker	-9.25984
erd	-9.26024
▁best	-9.26026
▁oorspronkelijk	-9.26038
▁dochter	-9.26286
▁productie	-9.26338
▁niveau	-9.26464
ation	-9.26464
▁23	-9.26507
▁2004	-9.26518
▁24	-9.26747
▁bedrijven	-9.26748
burg	-9.26853
▁kregen	-9.2722
▁welke	-9.2727
stelling	-9.27365
▁wit	-9.2737
▁eilanden	-9.27395
ide	-9.27525
so	-9.2758
ph	-9.2759
▁gebruikte	-9.27641
ru	-9.27724
▁afhankelijk	-9.27786
▁veld	-9.27804
▁theorie	-9.27831
▁hel	-9.27892
▁2018	-9.27964
20	-9.2801
▁fi	-9.2808
slag	-9.28113
▁reden	-9.28179
▁neer	-9.28199
▁opstand	-9.28249
▁sprake	-9.28265
▁woorden	-9.28266
▁or	-9.28606
▁ben	-9.28622
tisch	-9.28691
▁beste	-9.28704
▁rusland	-9.2872
▁gra	-9.28785
▁gewest	-9.29072
▁industrie	-9.29344
ator	-9.294
▁voedsel	-9.29477
vorm	-9.29502
▁ne	-9.29666
▁regelmatig	-9.29739
aire	-9.29759
▁zwaar	-9.29958
▁iii	-9.30011
▁th	-9.30043
▁--	-9.3006
ö	-9.30118
▁iran	-9.30132
europa	-9.30176
theorie	-9.30181
iek	-9.30249
talen	-9.3029
plan	-9.30583
▁vlaams	-9.30591
30	-9.30709
gebieden	-9.30724
▁opdracht	-9.30838
▁laag	-9.30871
▁2013	-9.30886
eur	-9.31009
▁koffie	-9.31093
▁museum	-9.31146
▁uur	-9.31307
stel	-9.31311
▁rij	-9.31373
▁onge	-9.31377
▁sub	-9.31682
▁handen	-9.31747
▁valt	-9.3178
ele	-9.31831
▁goud	-9.31907
▁vervangen	-9.31953
par	-9.31968
▁2001	-9.31991
▁ki	-9.32112
oor	-9.3217
▁zomer	-9.32205
ë	-9.32283
▁verbonden	-9.32293
▁groeide	-9.32393
▁japan	-9.32607
▁gehele	-9.32708
▁gi	-9.32831
▁hulp	-9.33084
▁procent	-9.33096
ich	-9.33156
▁stuk	-9.33235
▁graf	-9.33397
ina	-9.33407
▁miljard	-9.3346
▁hierna	-9.33508
▁problemen	-9.33518
cus	-9.33594
▁100	-9.33798
▁zetten	-9.33802
▁bach	-9.33953
ple	-9.33986
▁bevat	-9.34008
naam	-9.34024
ders	-9.34027
leven	-9.34216
gezet	-9.34272
ast	-9.34365
▁lijn	-9.34367
▁ieder	-9.34382
▁nacht	-9.34439
ties	-9.34501
jaar	-9.34688
▁daarvoor	-9.34692
▁pvda	-9.34759
nam	-9.34841
▁holland	-9.34872
▁bezit	-9.34881
toe	-9.34894
12	-9.35079
▁verdrag	-9.35084
▁rome	-9.35121
▁2003	-9.35387
▁officieel	-9.35483
▁gespeeld	-9.3558
▁juist	-9.35637
wij	-9.3575
komen	-9.35751
▁engelse	-9.3601
▁handels	-9.36054
▁traditie	-9.36087
▁aandacht	-9.36154
▁noordelijke	-9.36234
tro	-9.36306
▁gingen	-9.36413
verantwoordelijk	-9.36427
werken	-9.36449
▁besloot	-9.36544
▁vindt	-9.36544
▁schrijven	-9.36547
▁start	-9.36566
▁werkte	-9.36622
pl	-9.36726
log	-9.36732
kte	-9.36732
mmen	-9.36742
▁ger	-9.36912
▁huwelijk	-9.36935
▁2015	-9.36956
rit	-9.36959
▁kunstenaars	-9.36965
▁ronde	-9.37049
hel	-9.37098
▁definitie	-9.37159
▁prijs	-9.373
▁georganiseerd	-9.37329
▁tempel	-9.37464
▁afkomstig	-9.37504
veld	-9.37518
centrum	-9.37558
ont	-9.37581
▁uitgevoerd	-9.37588
▁populair	-9.37632
teken	-9.37698
▁&	-9.37795
▁wij	-9.37832
tus	-9.37838
▁jeugd	-9.38121
▁gas	-9.38158
sie	-9.38192
▁geest	-9.38211
erende	-9.38229
▁sc	-9.38269
har	-9.38398
beeld	-9.38479
▁bekendste	-9.38495
▁verscheen	-9.38522
▁karel	-9.38555
▁telt	-9.38567
▁publiek	-9.38571
▁volk	-9.38655
igen	-9.38695
gu	-9.38862
▁religie	-9.38879
▁aard	-9.38908
ex	-9.38913
▁arnhem	-9.38919
▁bezig	-9.38968
▁hield	-9.39011
▁winter	-9.39095
anse	-9.39126
form	-9.39169
▁brugge	-9.39202
▁verloor	-9.39321
▁mate	-9.39373
mel	-9.39486
▁india	-9.39539
sh	-9.39542
–	-9.39571
beweging	-9.39581
▁kracht	-9.39591
▁troepen	-9.39622
▁nummer	-9.39634
druk	-9.39639
▁burgemeester	-9.3966
▁samenwerking	-9.3971
ä	-9.39723
•	-9.39724
▁uitzondering	-9.39724
▁vvd	-9.39728
▁zwarte	-9.3977
▁wijze	-9.39847
11	-9.39896
▁kruis	-9.39911
▁plant	-9.39927
▁islam	-9.39927
rs	-9.39934
▁situatie	-9.40003
▁stellen	-9.40063
▁media	-9.40089
▁menselijke	-9.40097
▁bos	-9.40137
▁y	-9.4017
▁27	-9.40222
▁vis	-9.40228
ya	-9.40286
▁alles	-9.40492
▁verhaal	-9.40495
▁beïnvloed	-9.40535
▁fo	-9.40624
▁ti	-9.40744
rat	-9.40882
don	-9.40928
▁2020	-9.4098
▁rijks	-9.41038
▁circa	-9.41106
brabant	-9.41234
▁com	-9.41239
▁tri	-9.41277
▁bouterse	-9.41353
▁college	-9.41476
nemen	-9.41504
rom	-9.41531
▁trad	-9.41631
▁hard	-9.41653
achtige	-9.41698
▁olie	-9.41855
▁trans	-9.41857
ach	-9.41881
▁brand	-9.41897
▁genomen	-9.41946
abel	-9.42019
westerse	-9.42056
▁italiaanse	-9.4215
▁oorsprong	-9.42178
▁ag	-9.42185
▁eigenschappen	-9.42209
tjes	-9.42215
▁heet	-9.4223
vers	-9.42347
▁dergelijke	-9.42407
ien	-9.42466
▁totale	-9.42466
▁moesten	-9.42472
▁voetbal	-9.42477
▁china	-9.42622
bb	-9.42625
▁verband	-9.42993
▁duits	-9.43031
cent	-9.43059
hand	-9.43138
▁mis	-9.43162
▁u	-9.43279
▁neemt	-9.43321
▁post	-9.43338
kwam	-9.43375
if	-9.43384
▁2016	-9.43449
▁et	-9.43459
▁verschil	-9.43499
eerden	-9.4379
▁microsoft	-9.43848
▁1994	-9.43864
▁cor	-9.43908
dus	-9.43974
▁tegenover	-9.44005
▁vlinders	-9.44067
▁vallen	-9.44245
▁traditionele	-9.4427
▁gedrag	-9.44344
▁beleid	-9.44344
▁fl	-9.44347
▁levens	-9.45037
middels	-9.45228
houden	-9.45326
loop	-9.45356
▁station	-9.45365
▁leider	-9.45383
▁baan	-9.45401
▁cda	-9.45416
▁raakte	-9.45431
bil	-9.45546
▁russische	-9.45577
▁negen	-9.4561
▁brazilië	-9.4565
all	-9.45784
▁oorspronkelijke	-9.45787
▁sal	-9.45838
yn	-9.4584
▁dicht	-9.45932
▁veroorzaakt	-9.45976
▁lichaam	-9.46
▁26	-9.46045
▁vierde	-9.46082
tel	-9.4632
ll	-9.46334
▁ooit	-9.4641
▁1945	-9.46424
▁volgt	-9.46427
▁noordzee	-9.46428
▁project	-9.46533
vis	-9.4657
zijde	-9.46611
▁internet	-9.46632
▁onbe	-9.46636
nis	-9.46647
▁cd	-9.46743
igheid	-9.46804
▁kenmerken	-9.4683
▁freud	-9.4684
▁kennen	-9.46847
mond	-9.46911
▁kleuren	-9.4705
zi	-9.47201
▁2017	-9.47298
▁trok	-9.47308
▁hiervoor	-9.47349
▁heilige	-9.47431
▁opleiding	-9.4752
wijk	-9.47533
lon	-9.4758
▁mil	-9.47601
5%	-9.47645
▁tour	-9.47853
▁0	-9.47883
waar	-9.47885
▁groen	-9.47917
est	-9.47935
tuig	-9.47954
treden	-9.47966
▁wa	-9.47979
laag	-9.48057
uk	-9.48062
▁rode	-9.48126
▁gemiddelde	-9.48129
]	-9.4815
▁toenmalig	-9.48151
▁ton	-9.48209
▁benoemd	-9.48223
▁bru	-9.48285
75	-9.48295
▁honderd	-9.48318
qui	-9.48418
fi	-9.48497
and	-9.4879
leden	-9.48861
▁politie	-9.48865
▁afrika	-9.48872
▁religieuze	-9.49033
▁2021	-9.49059
scha	-9.49171
▁vs	-9.49194
▁verhalen	-9.49228
▁cha	-9.49237
ert	-9.49358
▁oog	-9.49393
▁afge	-9.494
aars	-9.49417
▁bedoeld	-9.49478
▁aangezien	-9.49481
▁spreekt	-9.49487
▁28	-9.49547
int	-9.49654
lig	-9.49685
▁opzichte	-9.49722
zelfde	-9.49724
▁tennis	-9.49742
▁schrift	-9.49789
tt	-9.49824
loos	-9.49929
kers	-9.4996
▁kans	-9.49995
▁voeren	-9.50023
▁natuurlijke	-9.50026
▁29	-9.50183
▁ervoor	-9.50271
▁dinosauriërs	-9.50273
,5	-9.50275
ini	-9.50299
▁begrip	-9.50354
40	-9.50365
▁zweden	-9.50374
mu	-9.50505
▁rand	-9.50764
▁betrokken	-9.50823
▁roman	-9.50973
▁geleden	-9.51038
und	-9.51052
ong	-9.5117
name	-9.5118
ung	-9.51245
▁geplaatst	-9.51278
▁status	-9.51289
gra	-9.51312
▁31	-9.51361
fabriek	-9.51375
▁zoogdieren	-9.51416
fo	-9.51505
dan	-9.51552
▁eenheid	-9.51581
▁oorlogs	-9.51665
▁marx	-9.5168
▁aangeduid	-9.5173
▁hemingway	-9.5173
▁financiële	-9.5173
▁utrecht	-9.51731
dy	-9.51748
á	-9.5179
▁onderscheiden	-9.51917
▁daarop	-9.51982
▁opera	-9.52019
▁onderscheid	-9.5202
tes	-9.52053
cl	-9.52125
▁rivieren	-9.52133
▁verschenen	-9.52186
sy	-9.5219
stelsel	-9.52275
▁zuidelijke	-9.5236
▁broer	-9.52431
goed	-9.52438
ning	-9.52439
lam	-9.52461
war	-9.52506
by	-9.52577
▁pri	-9.52641
▁overigens	-9.52653
▁maria	-9.5267
▁oppervlakte	-9.52685
out	-9.52838
fen	-9.52867
▁pat	-9.52873
▁zorgde	-9.52964
▁pu	-9.52981
rd	-9.53006
vallen	-9.53039
▁dankzij	-9.53106
bar	-9.53121
▁ideeën	-9.53125
▁idee	-9.53194
▁schrijver	-9.5322
▁combinatie	-9.53358
▁ontstonden	-9.53391
▁60	-9.53479
▁gevallen	-9.53498
pre	-9.53535
muziek	-9.53664
▁structuur	-9.5374
▁samenleving	-9.53966
▁alpen	-9.53969
▁suriname	-9.54034
▁rooms	-9.54061
▁bewaard	-9.54115
▁pop	-9.54171
▁z	-9.5423
els	-9.54311
aard	-9.54506
markt	-9.54571
▁albert	-9.54596
▁spin	-9.54666
pr	-9.54675
zer	-9.54732
ah	-9.54799
▁persoon	-9.54943
▁christendom	-9.54973
▁johannes	-9.5501
ab	-9.55253
▁gesteld	-9.55276
▁lijkt	-9.5546
▁vuur	-9.55511
ny	-9.55585
▁nabij	-9.55687
▁probleem	-9.55743
▁oostenrijk	-9.55834
▁schiphol	-9.55917
zet	-9.55918
▁richtte	-9.55941
schrift	-9.55989
afrika	-9.56007
for	-9.56133
ang	-9.56186
▁aangenomen	-9.56202
▁ss	-9.56264
▁spanje	-9.56403
70	-9.56411
▁vrede	-9.56456
partij	-9.56542
fer	-9.56662
▁denken	-9.56782
ris	-9.56796
▁regel	-9.56853
▁schilder	-9.56907
▁kleinere	-9.56917
ezel	-9.56972
q	-9.56984
80	-9.57012
kunst	-9.57034
▁formule	-9.57061
65	-9.57092
▁daarin	-9.57243
▁hogere	-9.57255
▁liep	-9.57416
▁ed	-9.57442
heer	-9.57528
cr	-9.57604
▁gen	-9.57623
▁wetten	-9.57628
ari	-9.5763
▁verklaring	-9.57866
▁70	-9.57933
lat	-9.57956
▁probeerde	-9.57981
▁maakten	-9.58042
▁poging	-9.58198
tocht	-9.58331
▁vo	-9.58331
▁1990	-9.58341
▁spaanse	-9.58359
▁gezag	-9.58378
ans	-9.58492
▁relatie	-9.58548
▁thema	-9.58589
▁os	-9.58635
▁gerekend	-9.58761
▁geboorte	-9.58771
park	-9.58799
▁denemarken	-9.58808
ept	-9.5883
▁methode	-9.58837
ies	-9.58866
oli	-9.58916
spraak	-9.58966
▁polen	-9.59017
ps	-9.59089
43	-9.59131
ieten	-9.59192
▁rechter	-9.59213
▁gebeurtenissen	-9.59309
▁buitenland	-9.59476
▁vrijheid	-9.59553
▁diens	-9.59566
▁overwinning	-9.59599
▁beperkt	-9.59601
▁rotterdam	-9.59791
▁milieu	-9.59937
oorlog	-9.59996
▁gang	-9.60027
▁gemeenteraad	-9.60039
▁bijbel	-9.60061
▁wiskundige	-9.60126
▁pan	-9.60138
25	-9.60188
▁gericht	-9.60219
▁karakter	-9.60286
▁beschreven	-9.60286
▁gewonnen	-9.60286
sverkiezingen	-9.60292
▁geleid	-9.60575
▁regels	-9.60655
▁egypte	-9.60783
▁mohammed	-9.60783
▁mozart	-9.60783
▁behoort	-9.60784
▁overleed	-9.60784
▁sterren	-9.60799
▁gold	-9.6082
ou	-9.60822
win	-9.60862
▁vermeld	-9.60993
ei	-9.61075
▁band	-9.61152
sten	-9.61278
▁fortuyn	-9.61283
▁televisie	-9.61353
▁loopt	-9.6137
ure	-9.61371
▁duitsers	-9.61415
gevoerd	-9.6147
▁maand	-9.61528
lie	-9.61539
tion	-9.61672
chi	-9.6173
▁half	-9.61765
▁godsdienst	-9.61807
▁besloten	-9.6184
▁publiceerde	-9.61865
▁java	-9.61896
▁premier	-9.61944
▁golf	-9.61944
mb	-9.62056
ros	-9.62062
▁cuba	-9.62128
▁zetel	-9.62255
▁nauw	-9.62267
▁federale	-9.62301
▁oprichting	-9.62318
dom	-9.62403
▁qua	-9.62417
staan	-9.62421
▁ogen	-9.62496
▁europees	-9.62559
ief	-9.6258
▁thuis	-9.62629
ty	-9.6266
yl	-9.6266
▁teksten	-9.62763
▁descartes	-9.62799
▁bevinden	-9.62799
▁keulen	-9.62799
▁stem	-9.62824
▁alfabet	-9.63031
▁hu	-9.63124
59	-9.63134
▁col	-9.63218
▁mu	-9.63242
▁sindsdien	-9.63313
▁verkeer	-9.63356
▁pal	-9.6351
▁tu	-9.63542
▁weten	-9.63545
▁culturele	-9.63607
▁praktijk	-9.63616
band	-9.63635
ay	-9.63647
▁bio	-9.63693
arm	-9.63741
▁provincies	-9.63789
▁feyenoord	-9.63822
▁oranje	-9.63822
▁gebleven	-9.63822
▁opvolger	-9.63822
▁reeks	-9.63849
▁ontdekt	-9.64009
▁iedere	-9.64027
▁uitgebreid	-9.6404
ons	-9.64052
▁doorgaan	-9.64063
▁gevolgd	-9.64144
▁web	-9.64152
▁ouder	-9.64153
▁zu	-9.6422
han	-9.64254
▁ministers	-9.64313
wi	-9.64314
▁theater	-9.64318
▁koninklijke	-9.6433
▁beschikbaar	-9.64337
▁blijft	-9.64337
▁luther	-9.64338
ois	-9.64356
qu	-9.64358
▁bijzondere	-9.64399
▁bre	-9.64409
49	-9.64417
lingen	-9.64482
nu	-9.64515
76	-9.64563
macht	-9.64612
▁rechten	-9.64869
oom	-9.64927
▁bleven	-9.64942
roep	-9.64952
mis	-9.65179
▁wind	-9.65185
▁principe	-9.65255
▁blijkt	-9.65377
▁krijgt	-9.65378
▁literaire	-9.6538
▁jazz	-9.65386
▁berlijn	-9.65386
37	-9.65387
▁bereikt	-9.65466
▁toren	-9.655
▁verleden	-9.65551
dal	-9.65638
▁eeuwen	-9.65692
▁zie	-9.65699
▁haag	-9.65768
▁betreft	-9.659
▁arbeiders	-9.6593
▁extra	-9.65936
let	-9.65957
▁schrijvers	-9.65997
▁zei	-9.6601
▁openbaar	-9.66243
▁bloed	-9.66249
▁seizoen	-9.663
▁art	-9.66327
▁beelden	-9.66344
▁contact	-9.66361
▁gouden	-9.66422
▁einstein	-9.66426
▁overige	-9.66553
rlei	-9.66557
woord	-9.66623
▁mer	-9.66642
▁constant	-9.66653
iërs	-9.66679
boek	-9.66846
iv	-9.6695
mmer	-9.66966
▁koran	-9.66982
▁goden	-9.67115
▁hemel	-9.67233
▁zand	-9.67424
lui	-9.67459
▁ontdekking	-9.67486
▁zware	-9.67488
▁getal	-9.67523
▁behaalde	-9.67531
▁fractie	-9.67542
▁40	-9.67557
▁verplicht	-9.67558
put	-9.67602
▁mon	-9.67613
mal	-9.67712
▁bra	-9.67738
▁lage	-9.67748
47	-9.67906
▁auteurs	-9.68001
wer	-9.68077
▁gedeelte	-9.68085
▁vonden	-9.6813
ric	-9.68194
▁type	-9.68261
▁voet	-9.68361
uur	-9.68417
zoals	-9.6845
ley	-9.68545
▁genoeg	-9.68559
ian	-9.68621
▁gesloten	-9.68637
▁mark	-9.68669
▁coalitie	-9.68699
gan	-9.68702
ub	-9.68754
▁want	-9.68805
▁commissie	-9.68839
door	-9.68857
dt	-9.68897
▁ei	-9.68908
▁winnen	-9.69108
joodse	-9.69108
▁80	-9.69201
▁maatschappij	-9.69244
▁bergen	-9.69268
▁wi	-9.69401
▁za	-9.69518
▁roemenië	-9.69643
▁wiskunde	-9.69643
▁1998	-9.69662
communistische	-9.69662
▁vormde	-9.69697
▁bodem	-9.697
▁zette	-9.69707
▁ingevoerd	-9.69726
graven	-9.69854
▁lengte	-9.6999
▁bl	-9.69995
▁snelheid	-9.70129
▁voorzien	-9.70177
▁houdt	-9.70196
99	-9.70362
21	-9.70479
▁gal	-9.70499
gebruik	-9.70592
▁materiaal	-9.70726
▁hart	-9.7077
▁hi	-9.7078
▁moslims	-9.70888
iet	-9.70934
ez	-9.70938
89	-9.70977
werp	-9.71056
ieve	-9.7107
▁aanleiding	-9.71089
▁ac	-9.7117
schilder	-9.7119
vaart	-9.71205
▁effect	-9.71283
landen	-9.71303
41	-9.71311
▁openbare	-9.7134
school	-9.714
▁verhouding	-9.71401
▁reactie	-9.71437
è	-9.71465
19	-9.71507
▁generatie	-9.71516
cho	-9.71601
▁va	-9.71603
▁verw	-9.7162
63	-9.71621
▁ontwerp	-9.71679
▁opkomst	-9.71701
wereld	-9.71768
que	-9.7182
zetten	-9.71826
▁iemand	-9.71847
▁ontwikkelen	-9.71847
▁britten	-9.71848
▁gezin	-9.7187
▁newton	-9.71898
▁grenzen	-9.71925
sport	-9.71947
60	-9.71954
▁heen	-9.72027
▁kalender	-9.72112
▁ec	-9.72134
▁hout	-9.7214
83	-9.72246
▁analyse	-9.72283
elen	-9.72283
▁william	-9.72406
▁twaalf	-9.72406
▁gezet	-9.7241
▁studenten	-9.72414
▁spelers	-9.72452
▁landschap	-9.7246
kker	-9.72479
44	-9.72634
▁bon	-9.72733
▁spreken	-9.72791
▁christenen	-9.72878
grond	-9.72906
zon	-9.72944
▁bank	-9.72945
▁discussie	-9.72968
▁1940	-9.73
beek	-9.73104
code	-9.73184
▁kra	-9.7319
ijs	-9.73309
▁keerde	-9.73434
oever	-9.73534
ici	-9.73542
▁mocht	-9.73548
▁ku	-9.73678
▁aanzienlijk	-9.7369
og	-9.73732
▁populaire	-9.73802
▁week	-9.73833
▁kerken	-9.73853
-1	-9.73871
▁rust	-9.73939
gebouw	-9.73945
74	-9.73987
▁dichter	-9.74047
▁wonen	-9.74063
▁behulp	-9.74101
▁1995	-9.74126
▁afgeleid	-9.74153
▁vaste	-9.742
leider	-9.74245
▁ridder	-9.74311
▁gene	-9.74456
64	-9.74509
sis	-9.7457
▁klasse	-9.74607
periode	-9.74631
▁super	-9.74652
▁resultaat	-9.74672
▁1980	-9.74704
▁bronnen	-9.74717
▁werkelijkheid	-9.74745
▁veelal	-9.74758
toren	-9.7484
▁bereiken	-9.74889
▁kinder	-9.74947
▁steen	-9.751
vest	-9.75123
▁sm	-9.75161
▁bezoek	-9.7518
▁hoeveelheid	-9.75247
▁aruba	-9.7525
72	-9.75257
mann	-9.75306
▁ontving	-9.75306
▁toernooi	-9.75308
loze	-9.75327
ju	-9.7536
▁(20	-9.75403
▁economisch	-9.75438
▁lagen	-9.75471
▁kind	-9.75564
▁begint	-9.75578
echt	-9.75677
las	-9.75685
▁geslacht	-9.75697
bal	-9.75784
trekken	-9.75876
strijd	-9.7589
▁schilders	-9.75915
achtig	-9.75997
▁hierin	-9.76012
kr	-9.7606
isering	-9.76103
gegeven	-9.76165
av	-9.76218
leer	-9.7623
▁mat	-9.76244
67	-9.76291
69	-9.76306
24	-9.7639
▁toegepast	-9.76406
▁james	-9.76418
▁moord	-9.7644
▁verzet	-9.76444
leef	-9.76503
▁doet	-9.76512
▁speelt	-9.76661
▁bond	-9.76675
▁louis	-9.76729
17	-9.76757
▁mogelijkheid	-9.76766
lan	-9.76816
▁burgers	-9.76956
clusief	-9.76991
▁christus	-9.7701
▁1999	-9.77019
▁gekomen	-9.77019
▁geluid	-9.77076
82	-9.77078
▁oudere	-9.77122
▁not	-9.77208
ama	-9.77209
▁scholen	-9.77222
▁controle	-9.77299
▁verbinding	-9.77384
hof	-9.77499
▁reis	-9.77527
▁vergelijking	-9.77586
▁speciale	-9.77588
europese	-9.77594
▁neu	-9.77598
▁tachtig	-9.77609
tar	-9.77629
▁eigenlijk	-9.77658
iseerd	-9.7782
▁onderwerp	-9.77844
▁besluit	-9.77854
▁(16	-9.77888
▁communicatie	-9.77892
organisatie	-9.77934
▁ur	-9.78005
▁vereniging	-9.7801
lar	-9.78025
▁zonne	-9.78163
genoot	-9.78165
▁nauwelijks	-9.78172
▁tikal	-9.78175
cha	-9.78188
▁1960	-9.78199
▁californië	-9.78262
▁pen	-9.78264
▁schepen	-9.78276
▁jean	-9.78311
53	-9.78358
matig	-9.78391
▁zorgen	-9.78426
15	-9.78525
▁aange	-9.78566
▁anderzijds	-9.78766
▁onderling	-9.78788
▁ban	-9.78953
▁ziekte	-9.79145
ó	-9.79167
▁lopen	-9.79191
industrie	-9.79299
95	-9.7937
▁zichtbaar	-9.79401
prijs	-9.79422
blad	-9.79475
kunde	-9.79512
▁volledige	-9.7954
▁au	-9.7964
gebracht	-9.7967
dam	-9.79698
ille	-9.79799
rak	-9.79802
▁gebouwen	-9.799
▁respectievelijk	-9.79968
14	-9.7997
▁tro	-9.79992
hoofd	-9.80017
▁gebouw	-9.80017
isatie	-9.8002
▁ontstaat	-9.80035
▁toepassing	-9.8006
▁betrekking	-9.80125
▁mogen	-9.80167
mans	-9.8019
▁trein	-9.80234
islamitische	-9.80303
▁carrière	-9.80374
duc	-9.80401
13	-9.80409
▁wedstrijden	-9.80443
▁kende	-9.80499
top	-9.80537
▁mond	-9.80567
▁veroordeeld	-9.80574
▁bepalen	-9.80576
▁buurt	-9.80579
▁kamerverkiezing	-9.80584
▁1989	-9.80602
▁verlies	-9.80656
erde	-9.80864
▁kok	-9.809
▁plato	-9.80902
▁optreden	-9.81015
▁fase	-9.81043
91	-9.8115
▁peter	-9.81163
▁charles	-9.81193
▁machine	-9.81222
gers	-9.81263
▁bereikte	-9.81393
▁techniek	-9.81409
85	-9.8141
▁geleidelijk	-9.81438
▁wapen	-9.8169
bos	-9.81732
▁enorme	-9.81744
nieuw	-9.81748
▁stierf	-9.81797
▁luchthaven	-9.81813
▁stroming	-9.81832
▁sprak	-9.8186
▁mogelijke	-9.81913
▁tal	-9.81957
▁schaal	-9.81964
54	-9.82024
35	-9.82116
▁pla	-9.82129
▁dorp	-9.8213
▁at	-9.82266
▁vak	-9.82335
▁gro	-9.82347
cu	-9.82402
▁fokker	-9.82424
▁stelt	-9.82438
58	-9.82447
lopen	-9.82448
51	-9.82558
vlucht	-9.82574
istisch	-9.82586
▁koers	-9.82613
▁model	-9.8264
pan	-9.82667
▁trouw	-9.8275
stellen	-9.82792
▁sociaal	-9.82871
▁westelijke	-9.82881
▁omvat	-9.82945
▁overlijden	-9.83035
▁vers	-9.8306
niet	-9.83066
▁1970	-9.8307
generaal	-9.83148
▁troon	-9.83152
▁gebruikelijk	-9.83183
▁willen	-9.83207
haven	-9.83331
lia	-9.83366
▁hor	-9.83403
▁strip	-9.83451
tak	-9.83626
▁zwolle	-9.83661
▁1993	-9.83683
gemaakt	-9.83724
▁slotte	-9.83731
▁arabische	-9.83731
▁grondgebied	-9.83753
▁bouwen	-9.83753
▁latijnse	-9.83848
90	-9.83913
west	-9.83996
▁gegevens	-9.84007
dieren	-9.84029
▁/	-9.84037
baan	-9.84096
▁dna	-9.84105
78	-9.84116
▁poten	-9.84162
▁links	-9.84175
▁echt	-9.84183
▁specifieke	-9.84241
▁münchen	-9.84289
▁beschikt	-9.84289
▁bedrijf	-9.84301
▁schelde	-9.84322
waarts	-9.84325
16	-9.84334
48	-9.84346
▁iedereen	-9.84419
▁ik	-9.8445
maker	-9.84503
▁zw	-9.8451
▁schu	-9.84528
elle	-9.84537
71	-9.8457
▁gemiddeld	-9.84677
▁echte	-9.84679
▁(3	-9.84712
link	-9.84743
nie	-9.84774
▁generaal	-9.84809
▁werking	-9.84809
▁vroeger	-9.84863
god	-9.84873
▁bel	-9.84908
▁gepubliceerd	-9.84922
▁ijs	-9.84943
▁1939	-9.84949
▁verg	-9.84955
ink	-9.84967
lit	-9.85015
zeeland	-9.8504
voer	-9.85059
oud	-9.85091
ringen	-9.85106
▁kies	-9.85142
▁mening	-9.85154
▁pius	-9.85177
▁zilver	-9.85179
iz	-9.85227
▁latijn	-9.85279
▁beroep	-9.85289
tz	-9.85381
▁gevangen	-9.85409
ana	-9.85453
▁verklaarde	-9.8554
namen	-9.85557
▁rembrandt	-9.85559
▁groenlinks	-9.85559
▁minuten	-9.8556
ov	-9.85575
▁chemisch	-9.85589
fic	-9.85685
▁onze	-9.85708
77	-9.85756
vorming	-9.8583
aliteit	-9.85854
▁legde	-9.85876
▁twintig	-9.85917
▁verandering	-9.85964
vormen	-9.85982
▁wereldwijd	-9.86101
▁romeinen	-9.86203
▁scha	-9.86215
▁zoek	-9.86264
oog	-9.86266
▁azië	-9.86332
88	-9.8637
kort	-9.86445
▁sto	-9.86532
▁liefde	-9.86547
▁ges	-9.86579
▁serie	-9.86624
▁straat	-9.86668
68	-9.86677
▁witte	-9.86739
▁toegevoegd	-9.86845
▁element	-9.86849
73	-9.86868
▁haalde	-9.86869
▁1992	-9.8687
eu	-9.8689
▁irak	-9.86896
▁twintigste	-9.86907
cke	-9.86982
▁lager	-9.86988
geschiedenis	-9.87035
▁arbeids	-9.87042
productie	-9.87079
elijkheid	-9.87175
▁functies	-9.87268
45	-9.87314
rand	-9.87315
▁fiets	-9.8734
▁stil	-9.87429
▁us	-9.87453
won	-9.87459
▁ontvangen	-9.87495
▁bezocht	-9.87495
▁gehad	-9.87498
01	-9.87508
▁achtergrond	-9.87596
▁aanval	-9.8761
bert	-9.87619
aak	-9.87644
stijl	-9.87658
▁pra	-9.87718
hal	-9.87742
zuid	-9.8776
▁1950	-9.87849
▁chr	-9.8786
ight	-9.87876
57	-9.87929
leggen	-9.87936
97	-9.88022
-20	-9.88073
sk	-9.88081
vul	-9.88087
▁wijk	-9.88147
▁enerzijds	-9.88148
▁himmler	-9.88148
▁droeg	-9.88149
rt	-9.88201
▁trekken	-9.88208
▁stukken	-9.88281
pers	-9.88341
32	-9.88349
▁bloei	-9.88413
port	-9.88473
raden	-9.88481
▁tuin	-9.8849
▁sporen	-9.88499
var	-9.88511
gericht	-9.88525
▁stonden	-9.88556
houder	-9.88646
▁keren	-9.88654
sus	-9.88656
groepen	-9.88686
▁blad	-9.88721
▁es	-9.88768
▁verkozen	-9.88806
▁david	-9.88806
▁1944	-9.88837
▁verlaten	-9.88881
▁uni	-9.88903
▁em	-9.88921
act	-9.89013
▁hoek	-9.89034
ool	-9.89059
holland	-9.89063
individuele	-9.89102
▁bevatten	-9.89113
wisseling	-9.89198
ice	-9.89249
▁gr	-9.89302
zee	-9.8932
gy	-9.89333
weer	-9.89333
gekomen	-9.8935
▁atmosfeer	-9.89468
▁ber	-9.89502
hoe	-9.89503
▁arts	-9.89562
werking	-9.89562
▁kom	-9.89615
▁diep	-9.89632
▁kro	-9.89646
▁oudheid	-9.89701
tica	-9.8976
gesteld	-9.89789
▁code	-9.89849
zaal	-9.89934
▁dier	-9.89952
▁bus	-9.90085
▁stelling	-9.90085
▁gedacht	-9.90137
iger	-9.90137
▁zullen	-9.90148
▁veiligheid	-9.90159
▁genaamd	-9.90168
▁chi	-9.90185
grens	-9.9039
▁halve	-9.90448
▁stof	-9.90478
▁stroom	-9.90538
ori	-9.90555
▁ster	-9.90575
▁kwaliteit	-9.90586
▁verklaard	-9.90827
▁2022	-9.90835
▁amerikanen	-9.90837
voornaamste	-9.90839
▁regime	-9.90935
▁congres	-9.9096
erij	-9.90963
▁george	-9.90981
▁rondom	-9.91011
brand	-9.91013
▁streek	-9.91034
▁boeren	-9.91037
grafie	-9.9107
ita	-9.91084
▁90	-9.91201
▁luc	-9.91353
▁straf	-9.91381
▁dient	-9.914
▁technologie	-9.9142
▁cel	-9.91438
92	-9.91468
▁industriële	-9.91482
gh	-9.91531
▁bor	-9.91607
middel	-9.91661
▁binnenstad	-9.91688
▁symbool	-9.91853
▁nederlandstalig	-9.91907
gar	-9.91989
leiding	-9.91991
▁conflict	-9.92057
▁koningin	-9.92094
▁spoor	-9.92107
▁speciaal	-9.92162
▁activiteiten	-9.92169
▁helemaal	-9.92198
mat	-9.92222
▁sh	-9.92231
▁fransen	-9.92237
%	-9.92387
zien	-9.9239
▁wo	-9.92402
▁team	-9.92412
▁wilden	-9.92421
▁fran	-9.92442
28	-9.92458
▁feest	-9.92519
uil	-9.92593
2%	-9.92618
▁heer	-9.92744
hon	-9.92835
▁geschikt	-9.92847
▁1996	-9.9286
stein	-9.92933
gram	-9.92974
▁brak	-9.93
▁overgenomen	-9.93036
teerd	-9.93106
president	-9.93159
▁doden	-9.93184
▁terecht	-9.93211
stof	-9.93259
▁prins	-9.93459
old	-9.93478
▁plek	-9.93505
▁amersfoort	-9.93537
▁volwassen	-9.93537
▁regional	-9.93561
lic	-9.9362
▁para	-9.93661
▁mol	-9.93686
ell	-9.93734
gene	-9.9379
▁vliegen	-9.93831
gelaten	-9.93848
eld	-9.93876
verkeer	-9.93889
▁weken	-9.93889
▁dam	-9.93907
wegen	-9.93937
titel	-9.93987
steden	-9.94077
46	-9.94087
3%	-9.94197
bra	-9.94207
▁lodewijk	-9.94231
▁beurt	-9.94243
▁1991	-9.94261
▁hoogtepunt	-9.94363
31	-9.94443
▁architectuur	-9.94531
oon	-9.94557
kleur	-9.9457
schappen	-9.94587
▁verwant	-9.94602
▁stichting	-9.94625
▁gar	-9.94689
katholieke	-9.94732
maak	-9.94766
wacht	-9.94842
▁vriend	-9.94873
▁diende	-9.94877
▁ingedeeld	-9.94931
getrokken	-9.94933
logisch	-9.94939
▁vastgelegd	-9.94944
▁rechtstreeks	-9.94948
▁export	-9.94948
zicht	-9.94951
▁wezen	-9.94995
▁bewind	-9.94999
▁verliet	-9.95034
anten	-9.95042
vrij	-9.95043
wo	-9.95066
▁naties	-9.95099
genomen	-9.95109
▁poly	-9.95121
▁australië	-9.95151
▁beginnen	-9.95172
proces	-9.95175
▁fu	-9.9522
naar	-9.95226
▁inhoud	-9.95259
zorg	-9.95302
klasse	-9.95311
▁slecht	-9.95352
▁(1	-9.95365
▁2,	-9.95414
▁instellingen	-9.95614
norm	-9.9563
▁planeet	-9.95636
▁geopend	-9.95638
▁geografie	-9.95639
▁betekende	-9.95639
▁geweld	-9.95645
▁brief	-9.95649
▁leverde	-9.95704
94	-9.95734
▁producten	-9.95783
▁schade	-9.95898
▁beschermd	-9.95911
▁vertaling	-9.95942
61	-9.95957
▁eten	-9.95978
vlieg	-9.96021
▁bestand	-9.96044
hout	-9.96057
▁bet	-9.96099
▁leggen	-9.9613
81	-9.96137
▁amerika	-9.96143
▁ob	-9.96196
com	-9.96221
ham	-9.96235
▁auteur	-9.96308
▁crisis	-9.9632
▁socialistische	-9.96353
▁pascal	-9.96368
▁waterstof	-9.96387
▁rock	-9.96407
2)	-9.96409
▁beschrijving	-9.96418
▁stap	-9.96418
▁breed	-9.9645
▁leek	-9.96455
▁machts	-9.96526
▁oppervlak	-9.96559
▁indien	-9.96584
93	-9.96587
▁complex	-9.96596
▁ijsland	-9.96658
▁vliegtuig	-9.96659
84	-9.96693
▁mal	-9.96761
kamer	-9.96808
▁hol	-9.96834
▁letter	-9.96907
▁venlo	-9.96941
bus	-9.96977
▁universiteiten	-9.97051
richting	-9.97153
oost	-9.97276
▁late	-9.97456
▁speel	-9.97473
jan	-9.97517
ade	-9.97524
▁merk	-9.97719
▁roermond	-9.97778
▁defensie	-9.9778
▁koolstof	-9.9778
waardig	-9.97799
▁terugkeer	-9.97804
▁persoonlijke	-9.97814
▁plannen	-9.97853
▁telde	-9.97859
plein	-9.97895
streeks	-9.97917
▁aanwezigheid	-9.97917
▁vielen	-9.97957
uc	-9.97959
zin	-9.98074
56	-9.98079
▁hierop	-9.98168
lla	-9.982
▁neo	-9.98207
▁erkend	-9.98264
ben	-9.98269
▁bed	-9.98292
ucht	-9.98357
lid	-9.98362
politiek	-9.98365
▁verkocht	-9.98424
▁ontwikkelingen	-9.98424
▁object	-9.98487
▁gezondheid	-9.98503
▁micro	-9.98503
nog	-9.98516
▁natuurkunde	-9.98527
▁1986	-9.98528
▁mes	-9.98552
▁vermoord	-9.9856
▁sloot	-9.98563
organ	-9.98614
▁(15	-9.98797
▁toekomst	-9.98897
▁actie	-9.98916
pas	-9.98934
gemeente	-9.98939
▁ambt	-9.99038
▁jaartal	-9.99129
cum	-9.9915
los	-9.9916
27	-9.99175
▁himalaya	-9.99232
▁tegelijkertijd	-9.99232
▁provinciale	-9.99233
▁kiezen	-9.99233
▁dertig	-9.99238
car	-9.99245
hit	-9.99336
▁publieke	-9.99341
dienst	-9.99381
tru	-9.99388
tiek	-9.99519
hang	-9.99524
▁weert	-9.99545
▁nadruk	-9.99562
▁zitten	-9.99644
nummer	-9.99693
▁can	-9.9972
▁uitspraak	-9.99732
ath	-9.99821
▁stelsel	-9.99852
▁overeen	-9.99888
laat	-9.99907
dro	-9.99956
▁verdwenen	-9.99968
▁belangstelling	-9.99994
▁vermoedelijk	-10.0004
34	-10.0004
▁bezoekers	-10.0005
ram	-10.0009
▁karl	-10.0016
▁historisch	-10.0016
line	-10.0024
▁$	-10.0032
▁fin	-10.0037
bijvoorbeeld	-10.0044
soorten	-10.0047
▁aparte	-10.0048
▁eenvoudig	-10.0051
▁tijdelijk	-10.0057
▁continent	-10.0059
▁dragen	-10.0066
▁commerciële	-10.0071
▁dordrecht	-10.0071
▁zestig	-10.0071
orthodoxe	-10.0072
22	-10.0077
▁niets	-10.0084
lim	-10.0089
▁arm	-10.0089
▁japanse	-10.0091
▁klooster	-10.0105
dor	-10.0113
inter	-10.012
▁verzameling	-10.0132
einde	-10.0132
tekening	-10.0133
▁terrein	-10.0139
▁dialect	-10.014
▁afzonderlijk	-10.0145
▁verboden	-10.0147
▁cijfers	-10.0148
▁robert	-10.015
▁instrument	-10.0163
houding	-10.0164
ets	-10.0165
▁lubbers	-10.0166
▁ouders	-10.0167
▁gelden	-10.0168
▁geluids	-10.0169
▁vormden	-10.0177
▁martin	-10.019
positie	-10.0193
cultuur	-10.0197
film	-10.0198
▁parken	-10.0198
aanse	-10.0198
iers	-10.02
▁wk	-10.0203
ria	-10.0207
▁beleg	-10.0209
86	-10.0212
kring	-10.0217
▁hans	-10.0218
▁ring	-10.0219
▁organisaties	-10.022
▁decennia	-10.0221
▁uitsluitend	-10.0221
▁jacob	-10.0221
▁1977	-10.0224
▁tegenstander	-10.0225
bed	-10.0234
▁lied	-10.0234
▁gre	-10.0239
dij	-10.0242
▁bol	-10.0244
para	-10.0248
▁militair	-10.0248
zone	-10.025
club	-10.0254
▁verzamel	-10.0259
gaande	-10.026
▁munt	-10.0262
▁gevolgen	-10.0265
lijst	-10.0265
zz	-10.0266
33	-10.0273
▁mijn	-10.0278
aten	-10.0279
bor	-10.0279
▁koude	-10.028
▁gast	-10.0284
▁athena	-10.0296
▁chinese	-10.0296
ique	-10.0305
▁festival	-10.0316
▁overzicht	-10.0318
26	-10.032
▁lagere	-10.0322
▁product	-10.0329
pol	-10.033
▁woon	-10.0337
zing	-10.0349
pot	-10.0351
▁bro	-10.0359
stroom	-10.036
groei	-10.0363
▁architect	-10.0367
grote	-10.0369
▁evolutie	-10.0373
▁gekenmerkt	-10.0373
▁lijsttrekker	-10.0373
▁editie	-10.0373
▁benaming	-10.0373
▁aangepast	-10.0373
▁droog	-10.0381
▁graaf	-10.0382
▁concept	-10.04
▁cre	-10.04
▁protestantse	-10.0404
▁vroegere	-10.0406
▁locatie	-10.0411
kan	-10.0414
rechten	-10.0418
79	-10.0418
▁veranderde	-10.0421
▁fort	-10.0422
type	-10.0423
project	-10.0428
post	-10.043
▁verdediging	-10.0435
▁omstandigheden	-10.0435
▁mont	-10.0438
boog	-10.044
cher	-10.0442
▁vijfde	-10.0446
rus	-10.0448
▁precies	-10.045
▁uitbreiding	-10.045
▁noemen	-10.045
ald	-10.045
▁oppositie	-10.045
bond	-10.045
▁toegang	-10.0465
▁voldoende	-10.0467
eeuwse	-10.047
▁oostelijke	-10.047
23	-10.0472
▁babylon	-10.0481
98	-10.0487
▁onafhankelijke	-10.0487
▁wal	-10.0491
dia	-10.0499
fre	-10.0501
87	-10.0502
maatschappij	-10.0507
ula	-10.051
duitsland	-10.051
kern	-10.0511
dorp	-10.0516
▁winst	-10.0523
▁gebeurt	-10.0527
▁traditioneel	-10.0527
▁wimbledon	-10.0527
▁arafat	-10.0527
▁bedekt	-10.0528
▁gregoriaans	-10.0533
gas	-10.0534
▁vogel	-10.0536
▁iv	-10.0549
▁kwa	-10.055
▁aandeel	-10.0555
▁nederlanders	-10.056
▁stra	-10.0574
ban	-10.0583
graaf	-10.0589
▁jong	-10.0592
▁regen	-10.0594
rk	-10.0599
▁gele	-10.0602
neming	-10.0603
▁onderverdeeld	-10.0605
▁instantie	-10.0605
▁gulden	-10.0605
▁verhuisde	-10.0608
4%	-10.0621
▁gedeeltelijk	-10.0629
52	-10.0629
▁blok	-10.063
icus	-10.063
▁horen	-10.0632
▁alexander	-10.064
▁bereid	-10.0641
iseerde	-10.0643
ller	-10.0645
rijn	-10.0652
▁200	-10.0655
centra	-10.0658
▁speler	-10.066
▁stammen	-10.0667
rang	-10.0676
lei	-10.0679
▁psychologie	-10.0679
▁vlucht	-10.068
▁leibniz	-10.0684
▁vóór	-10.0684
▁richard	-10.0684
baarheid	-10.0685
▁maatschappelijk	-10.0686
▁gebeurde	-10.0687
▁technische	-10.0688
ectie	-10.0689
▁1000	-10.0692
▁cro	-10.0693
▁brabant	-10.0696
▁germaanse	-10.0696
▁renaissance	-10.0699
▁aller	-10.0702
gelegd	-10.0709
graf	-10.0719
vlo	-10.072
▁zorgt	-10.0721
▁kaart	-10.0723
▁metro	-10.0727
eiland	-10.0728
lis	-10.0729
▁voerde	-10.0732
▁kanaal	-10.0736
▁kamp	-10.0747
az	-10.0752
appel	-10.0752
brug	-10.0754
▁schilderijen	-10.0757
▁avond	-10.0757
▁bisschop	-10.0761
histori	-10.0762
▁democratie	-10.0763
▁beatles	-10.0763
▁weigerde	-10.0764
▁destijds	-10.0764
wapen	-10.0764
▁fusie	-10.0765
hard	-10.0765
▁1988	-10.0767
wal	-10.077
▁zorg	-10.077
▁35	-10.0775
richt	-10.0779
▁definitief	-10.0785
▁ak	-10.0786
ters	-10.0789
▁ons	-10.0794
▁kandidaat	-10.0796
▁goederen	-10.0796
stoffen	-10.0797
▁adel	-10.0798
▁toneel	-10.0802
ooi	-10.0807
▁hall	-10.0817
geld	-10.0823
mes	-10.0823
▁grootte	-10.0825
▁ontslag	-10.0831
azië	-10.0832
▁winnaar	-10.0833
dit	-10.0833
gegaan	-10.084
spiegel	-10.084
▁getallen	-10.0841
fonds	-10.0842
▁privé	-10.0843
▁thomas	-10.0843
▁aanvaard	-10.0844
▁immers	-10.0844
▁noodzakelijk	-10.0844
▁veranderen	-10.0844
▁bewijs	-10.0844
▁schilderkunst	-10.0845
▁nobelprijs	-10.0846
▁act	-10.0847
▁prof	-10.0847
▁tak	-10.0856
▁bewegen	-10.0858
schot	-10.0859
62	-10.0859
▁liberale	-10.0862
oloog	-10.0869
▁winkel	-10.088
▁vn	-10.0882
▁front	-10.0882
▁°	-10.0888
▁sluiten	-10.089
iën	-10.0891
wijken	-10.0892
▁erop	-10.0893
▁diensten	-10.0894
ement	-10.0902
▁verval	-10.0906
zwe	-10.0906
alisme	-10.0909
beleid	-10.091
▁landelijke	-10.0912
polit	-10.0913
▁ware	-10.0924
▁heraclitus	-10.0924
▁voorkeur	-10.0925
▁bevoegdheden	-10.0925
▁musea	-10.0925
▁langzaam	-10.0925
▁succesvol	-10.0926
▁slaven	-10.0927
verdrag	-10.0927
▁1982	-10.0928
▁bescherming	-10.0934
▁bezetting	-10.0935
▁vlag	-10.0936
▁gebrek	-10.0938
▁lijken	-10.0938
▁cal	-10.0943
▁sector	-10.0963
▁zwart	-10.0969
▁('	-10.0972
▁heden	-10.0979
▁beroemde	-10.0979
▁opening	-10.098
oord	-10.098
▁char	-10.0989
vlaanderen	-10.0993
▁zuiver	-10.0996
▁verscheiden	-10.0999
▁protest	-10.1006
▁verwoest	-10.1015
loo	-10.1015
▁vertrek	-10.1016
▁voorstel	-10.1017
▁levende	-10.1033
▁ministerie	-10.1039
▁hal	-10.104
▁gemakkelijk	-10.1042
▁don	-10.1042
▁feite	-10.1044
▁aanleg	-10.1045
ble	-10.1045
nor	-10.1047
▁set	-10.1048
▁lidstaten	-10.1048
fra	-10.1059
▁kolonie	-10.1063
▁trouwde	-10.1066
▁monument	-10.1066
bit	-10.107
trop	-10.1081
huizen	-10.1081
iseren	-10.1082
tuur	-10.1084
cijfer	-10.1084
discipline	-10.1087
▁zit	-10.1089
▁enschede	-10.1089
▁bestuurlijke	-10.109
▁1930	-10.1093
▁leo	-10.1096
▁richten	-10.1099
▁kn	-10.1105
mit	-10.1114
▁voormalig	-10.1115
▁les	-10.1118
zij	-10.1121
▁international	-10.1125
maar	-10.1134
ib	-10.1138
▁proto	-10.114
▁burger	-10.1144
▁directe	-10.1148
▁lichaams	-10.1149
amerikaanse	-10.1163
vader	-10.1165
plaatsen	-10.1166
genoten	-10.1167
▁tientallen	-10.117
▁verklaren	-10.117
▁daarentegen	-10.117
▁biografie	-10.1171
▁vastgesteld	-10.1172
▁1968	-10.1173
▁1973	-10.1173
▁velen	-10.1176
▁kosten	-10.1176
▁auteursrecht	-10.1178
beheer	-10.1178
▁taak	-10.1179
rekening	-10.1181
geheten	-10.1184
▁anna	-10.1187
▁rang	-10.1188
▁chan	-10.1192
1%	-10.1193
▁wijn	-10.1199
▁verwacht	-10.1199
▁zat	-10.1202
▁betaald	-10.1205
station	-10.1205
▁ij	-10.1209
poort	-10.121
▁leren	-10.1222
bank	-10.1226
ji	-10.1229
▁interne	-10.1236
▁vleugels	-10.1239
▁gekregen	-10.1253
▁kasteel	-10.1253
▁versterkt	-10.1254
▁zijde	-10.1256
▁eventue	-10.126
▁riep	-10.1261
▁groeien	-10.1265
8%	-10.1271
▁vorming	-10.1277
our	-10.1288
▁overleden	-10.1291
lus	-10.1297
bas	-10.1302
▁ir	-10.1303
▁schoon	-10.1307
cy	-10.1309
▁bri	-10.131
ani	-10.1311
ino	-10.1314
▁meteen	-10.1315
▁teken	-10.132
▁mac	-10.1321
▁som	-10.1325
▁verslagen	-10.1326
machine	-10.1331
▁stikstof	-10.1337
▁biedt	-10.1337
▁geregeld	-10.1338
▁eindigde	-10.1339
▁kruistocht	-10.1339
▁ploeg	-10.134
▁hieronder	-10.1347
▁mel	-10.1357
tia	-10.1357
▁veranderd	-10.1369
▁uiteen	-10.1381
▁uitgebracht	-10.1384
euze	-10.1389
iss	-10.139
chu	-10.1395
▁(17	-10.1398
gg	-10.1413
vereniging	-10.1414
hr	-10.1415
▁modern	-10.1417
▁nauwkeurig	-10.1422
▁onmogelijk	-10.1422
▁toerisme	-10.1422
▁ervaring	-10.1423
ski	-10.1424
spanning	-10.1426
press	-10.1427
▁1920	-10.1428
▁behouden	-10.1429
);	-10.1435
ologische	-10.1437
ua	-10.1439
▁duurde	-10.144
▁hongarije	-10.1441
▁my	-10.1442
lever	-10.145
▁ser	-10.145
toernooi	-10.1457
▁kader	-10.146
inus	-10.1463
▁pieter	-10.1466
▁theo	-10.1469
ow	-10.1471
▁inzicht	-10.148
09	-10.1484
ges	-10.1486
mont	-10.1488
▁red	-10.1488
pal	-10.1502
kon	-10.1506
▁hertog	-10.1507
esturingssysteem	-10.1508
▁esperanto	-10.1508
▁hendrik	-10.1508
▁ligging	-10.1508
▁christenunie	-10.1508
▁prijzen	-10.1509
▁gek	-10.151
▁1983	-10.1512
▁1919	-10.1512
▁eer	-10.1512
▁grieks	-10.1514
▁uitvoering	-10.1514
▁warmte	-10.1515
ré	-10.152
heim	-10.1523
▁netwerk	-10.1523
▁geallieerden	-10.1524
noord	-10.1533
▁kunstenaar	-10.1535
▁gebergte	-10.1536
kop	-10.1537
middelen	-10.1563
▁afkomst	-10.1564
hield	-10.1582
kust	-10.1592
▁initiatief	-10.1594
▁aristoteles	-10.1594
▁jeruzalem	-10.1594
▁middellandse	-10.1594
▁opgevolgd	-10.1594
▁zeventig	-10.1594
onderhandelingen	-10.1595
▁wens	-10.1598
▁helium	-10.1598
▁unix	-10.16
▁national	-10.1602
rum	-10.1604
▁lot	-10.1606
zame	-10.1607
▁trokken	-10.1608
▁brug	-10.1609
▁vergadering	-10.1614
▁beroemd	-10.1621
▁voorheen	-10.1623
▁world	-10.1626
hul	-10.1626
steen	-10.1626
▁gebruikers	-10.1632
▁ofwel	-10.1632
kin	-10.1634
aris	-10.1639
▁aangelegd	-10.1641
▁hetgeen	-10.1645
vloed	-10.1648
tsj	-10.1653
gon	-10.1655
kamp	-10.1656
▁race	-10.166
▁brede	-10.1666
▁concert	-10.1677
▁joods	-10.168
▁rood	-10.1681
▁vijftig	-10.1681
▁perzische	-10.1682
▁1997	-10.1684
wit	-10.1686
▁duizenden	-10.1688
zijn	-10.1688
▁geestelijke	-10.1688
▁redenen	-10.1693
▁oplossing	-10.1705
kundige	-10.1708
▁werkt	-10.1709
▁sha	-10.1712
▁jongeren	-10.1715
trok	-10.1716
▁rug	-10.1716
stukken	-10.1717
▁ol	-10.1719
▁denk	-10.1721
mate	-10.1723
alle	-10.1726
ali	-10.1732
▁snelle	-10.1734
▁bewoners	-10.1741
▁schijn	-10.1743
29	-10.1744
kar	-10.1745
▁ana	-10.1747
ette	-10.1755
▁halen	-10.1762
geschreven	-10.1763
▁huygens	-10.1768
▁ziekenhuis	-10.1768
▁dollar	-10.1769
▁operatie	-10.1769
▁1948	-10.1772
▁plaatselijk	-10.1775
▁speer	-10.1776
▁rit	-10.1781
▁byzantijnse	-10.1784
speler	-10.1788
lijnen	-10.179
bat	-10.1794
▁soldaten	-10.1801
ara	-10.1803
▁manifest	-10.1807
▁mari	-10.1811
▁ingezet	-10.1815
▁sommigen	-10.1825
▁voordeel	-10.1832
▁bek	-10.1832
mijn	-10.1837
▁overheids	-10.1842
▁oer	-10.1843
sme	-10.1849
zuur	-10.185
▁pythagoras	-10.1857
▁schrikkeljaar	-10.1857
▁joseph	-10.1857
▁toeristen	-10.1857
tegen	-10.1858
vrouw	-10.1859
▁vertaald	-10.186
▁keizerrijk	-10.1863
hor	-10.1864
▁gewesten	-10.1864
▁kroon	-10.1867
▁zondag	-10.1867
vre	-10.1869
▁grand	-10.187
▁bewust	-10.1872
▁lezen	-10.1875
grafische	-10.1883
▁vermogen	-10.1884
hoek	-10.1884
▁platen	-10.1893
▁banden	-10.1896
▁streng	-10.1899
zakelijk	-10.1903
gem	-10.1924
itz	-10.1924
▁veranderingen	-10.1924
kanaal	-10.1932
person	-10.1933
▁tijdschrift	-10.1937
zetting	-10.1938
▁uitvoer	-10.1945
▁constantinopel	-10.1946
▁bevestigd	-10.1946
▁friedrich	-10.1946
▁verbeterd	-10.1946
▁prooi	-10.1946
▁vijftien	-10.1947
▁bedacht	-10.1948
▁academie	-10.1948
▁voorouder	-10.1948
▁vergelijkbaar	-10.1948
crisis	-10.195
▁1918	-10.1954
▁anton	-10.1958
▁comp	-10.1959
▁sol	-10.1961
indië	-10.1965
▁gouverneur	-10.1966
▁schot	-10.1977
▁verloop	-10.1977
komende	-10.1981
▁fra	-10.199
▁gedwongen	-10.1994
mbo	-10.1996
▁kor	-10.2004
▁transport	-10.2005
▁kwart	-10.2009
erend	-10.201
▁nood	-10.201
its	-10.2013
▁vorst	-10.2016
▁processen	-10.2016
▁schaats	-10.2016
route	-10.2018
geslagen	-10.2019
▁komst	-10.202
dis	-10.2022
can	-10.2024
okken	-10.2026
▁32	-10.2028
▁elektriciteit	-10.2036
▁hedendaagse	-10.2036
▁zodanig	-10.2036
▁kwik	-10.2036
▁negentig	-10.2036
▁nederlaag	-10.2037
▁kleiner	-10.204
▁johann	-10.2045
▁volgden	-10.205
▁kar	-10.2059
anti	-10.2059
▁visie	-10.2062
▁duur	-10.2062
▁sn	-10.2064
▁godin	-10.2065
▁dubbel	-10.2067
▁pers	-10.2068
-16	-10.207
orde	-10.2072
toon	-10.2076
voering	-10.208
uwen	-10.2082
▁html	-10.2089
gaat	-10.2091
▁ce	-10.2091
▁bibliotheek	-10.2092
▁reken	-10.2093
▁rapport	-10.2097
▁voorgesteld	-10.2111
▁mono	-10.2116
▁washington	-10.2127
▁kepler	-10.2127
▁noemt	-10.2127
gebroken	-10.2128
▁papier	-10.2129
▁1981	-10.2131
complex	-10.2134
▁smaak	-10.2138
aria	-10.2141
ikkel	-10.2144
▁dis	-10.2146
▁recente	-10.2161
diensten	-10.2162
▁priester	-10.2169
▁heuvel	-10.2172
ano	-10.2173
▁voorbij	-10.2179
ander	-10.2184
ance	-10.2187
▁maal	-10.2188
zender	-10.2203
▁onderwerpen	-10.2209
▁dom	-10.2213
▁genetisch	-10.2216
wezen	-10.2219
▁leopold	-10.2219
▁vaticaan	-10.2219
▁gezegd	-10.2219
▁armoede	-10.2219
▁monetair	-10.222
▁bieden	-10.222
▁filosofische	-10.222
▁succesvolle	-10.222
rechtvaardig	-10.2221
▁1933	-10.2222
niveau	-10.2224
terrein	-10.2228
▁luik	-10.2228
▁heren	-10.2228
wagen	-10.2235
▁slechte	-10.2236
▁waargenomen	-10.2236
▁artikelen	-10.2239
▁gezicht	-10.2239
▁filosoof	-10.2241
rijke	-10.2244
▁vorsten	-10.2244
▁wenen	-10.2247
iër	-10.2249
▁volgorde	-10.225
▁akkoord	-10.225
waarde	-10.226
tic	-10.2267
▁sar	-10.2267
punten	-10.2271
▁gewone	-10.2274
ane	-10.2276
uele	-10.2281
▁jongen	-10.2282
▁afdeling	-10.2291
kh	-10.2291
▁genre	-10.2292
▁tonen	-10.2293
▁afghanistan	-10.2312
▁michael	-10.2312
▁opgeheven	-10.2312
▁plat	-10.2313
▁zaak	-10.2315
▁jung	-10.2315
▁materie	-10.2315
▁finland	-10.2316
▁rijke	-10.2317
▁afrikaans	-10.232
fase	-10.2321
▁koos	-10.2321
stroming	-10.2322
meester	-10.2323
▁rots	-10.2324
▁bericht	-10.2325
38	-10.2327
▁interpretatie	-10.2332
kke	-10.2337
▁sterker	-10.2339
▁formatie	-10.2339
▁voorloper	-10.234
▁nieuws	-10.234
▁bestuurs	-10.234
▁tijdperk	-10.2343
▁stam	-10.2345
36	-10.2348
▁erkende	-10.2348
▁invoering	-10.2351
▁ensor	-10.2353
zu	-10.2359
ld	-10.2359
ante	-10.2362
▁belgisch	-10.2363
▁voortdurend	-10.2363
▁zweedse	-10.2366
▁geo	-10.2366
bie	-10.2367
▁ontdekte	-10.2371
')	-10.2373
▁beiden	-10.2381
▁bla	-10.2386
▁plu	-10.2393
san	-10.2397
▁deels	-10.2399
▁lijnen	-10.2404
▁socrates	-10.2405
▁zuurstof	-10.2405
▁burgeroorlog	-10.2406
▁franstalige	-10.2406
▁slaagde	-10.2406
daags	-10.2407
▁robot	-10.241
▁wol	-10.2415
▁samenstelling	-10.2417
▁1900	-10.2418
▁zoveel	-10.2418
▁ven	-10.2419
kom	-10.2421
▁toenemende	-10.2421
05	-10.2422
duits	-10.2431
▁aanhang	-10.2456
7%	-10.2471
▁stations	-10.2472
▁dienen	-10.2474
▁teams	-10.2477
▁schuld	-10.2481
▁mogelijkheden	-10.2482
meenschappelijke	-10.2482
▁toepassingen	-10.2485
▁frank	-10.2493
▁ros	-10.2494
▁mulisch	-10.2499
▁xii	-10.2501
▁linker	-10.2501
▁1967	-10.2504
etten	-10.2504
stat	-10.2509
▁termijn	-10.251
ces	-10.251
2.	-10.2511
functie	-10.2513
▁str	-10.2532
▁harde	-10.2541
▁zagen	-10.2542
▁wetenschappen	-10.2546
▁groene	-10.2547
wand	-10.255
model	-10.2552
eilanden	-10.2553
ora	-10.2556
apt	-10.2556
▁ziel	-10.256
ctor	-10.2566
slagen	-10.2572
▁vijand	-10.2579
zak	-10.2585
▁geleen	-10.2588
zelf	-10.2592
▁poëzie	-10.2595
▁1942	-10.2595
▁multi	-10.2595
▁duitstalige	-10.2595
▁streven	-10.2596
▁tentoonstelling	-10.2596
▁middeleeuwse	-10.2597
▁city	-10.2598
▁bezet	-10.2599
▁muur	-10.261
museum	-10.2611
last	-10.2611
▁rijden	-10.2621
▁persoonlijk	-10.263
vrucht	-10.2639
▁campagne	-10.2639
brengen	-10.2645
▁dagelijks	-10.2648
▁vakbonden	-10.2665
▁hess	-10.2667
alis	-10.2669
red	-10.2671
▁brusselse	-10.268
spect	-10.2681
▁menselijk	-10.2681
cal	-10.2684
▁boom	-10.2687
cc	-10.269
▁negentiende	-10.2691
▁vernieuwing	-10.2691
▁leeuw	-10.2692
▁opvattingen	-10.2693
▁neerslag	-10.2693
wetenschap	-10.2694
▁1979	-10.2694
iswaar	-10.2694
▁1941	-10.2695
▁saint	-10.2697
▁son	-10.2701
▁500	-10.2701
▁regerings	-10.2702
plant	-10.2703
▁verantwoord	-10.2719
vlakte	-10.2726
groen	-10.2728
▁piramide	-10.2737
▁mislukte	-10.2742
▁stroomt	-10.2744
▁indruk	-10.2749
▁carl	-10.2755
▁religies	-10.2756
▁verre	-10.2756
▁index	-10.2775
district	-10.2786
▁absolute	-10.2788
▁bedraagt	-10.2788
▁luxemburg	-10.2788
▁pierre	-10.2788
▁compositie	-10.2789
▁neder	-10.2795
ificatie	-10.2797
▁meester	-10.2798
6%	-10.2802
genoemde	-10.2806
▁long	-10.2815
▁franken	-10.2816
trek	-10.2819
▁bot	-10.2819
wissel	-10.2821
▁music	-10.2822
voudig	-10.2825
▁state	-10.2829
kaart	-10.2834
▁atlantische	-10.2834
▁elektrisch	-10.2834
▁dialecten	-10.2836
▁vlinder	-10.2842
▁scherp	-10.2848
houd	-10.2852
▁ci	-10.2852
way	-10.2857
▁kunsten	-10.2877
merk	-10.2878
▁tom	-10.288
▁zet	-10.288
▁grieken	-10.2882
▁zoom	-10.2884
niklaas	-10.2886
▁cauchy	-10.2886
▁context	-10.2886
▁getroffen	-10.2886
▁mechelen	-10.2886
▁toegekend	-10.2886
▁ontworpen	-10.2886
▁oorzaak	-10.2886
▁uitdrukking	-10.2886
▁antwoord	-10.2886
▁geschriften	-10.2886
▁democratische	-10.2888
▁gematigd	-10.2889
▁cobra	-10.2889
▁1978	-10.289
▁chili	-10.289
▁tru	-10.2893
▁malen	-10.2893
▁album	-10.2894
▁vertrok	-10.2895
▁wijken	-10.2897
▁serv	-10.2898
vv	-10.2901
▁wikipedia	-10.2901
▁bier	-10.2905
▁gelegd	-10.2908
pper	-10.2913
▁onderzoeks	-10.2915
▁letters	-10.2915
ruim	-10.2922
uri	-10.2933
▁vliegtuigen	-10.2942
▁uitgegeven	-10.2943
▁pol	-10.2943
▁onderdelen	-10.2945
▁georg	-10.2946
▁elf	-10.2948
▁uitvoeren	-10.2952
▁record	-10.2952
▁pap	-10.2964
veel	-10.2967
dijk	-10.297
▁august	-10.2978
▁document	-10.2982
▁trabzon	-10.2985
▁stuurde	-10.2985
roman	-10.2988
▁wetenschappers	-10.2989
zig	-10.2989
▁1914	-10.2989
▁slachtoffers	-10.299
komt	-10.2991
▁huizen	-10.2999
yo	-10.3013
▁computers	-10.3014
regio	-10.3017
▁frequentie	-10.3025
▁grondslag	-10.3026
taire	-10.3029
▁herman	-10.3041
▁opvallend	-10.3047
▁slot	-10.3051
▁gew	-10.3057
▁klank	-10.306
▁directeur	-10.306
▁var	-10.3061
▁hoop	-10.3063
▁lan	-10.3069
oïde	-10.3072
non	-10.3075
trekking	-10.3076
▁epi	-10.3079
escu	-10.308
script	-10.3084
digitale	-10.3085
▁mexico	-10.3085
▁herdenking	-10.3085
▁organiseren	-10.3085
▁racisme	-10.3085
▁gesticht	-10.3085
▁behandeling	-10.3085
patroon	-10.3085
▁nederzetting	-10.3085
▁meet	-10.3085
▁zulk	-10.3085
▁veroverd	-10.3086
▁ijssel	-10.3088
▁1974	-10.3089
▁1976	-10.309
▁medisch	-10.309
▁sneller	-10.3094
▁woonde	-10.3096
▁toestand	-10.3097
▁dacht	-10.3101
low	-10.3101
▁stoffen	-10.3104
▁begraven	-10.3106
gemeenschap	-10.3111
gro	-10.3111
neemt	-10.3111
feest	-10.3111
ola	-10.3113
▁henri	-10.3122
▁resultaten	-10.3124
▁[	-10.3126
team	-10.3132
▁sla	-10.3134
▁paleis	-10.3146
breken	-10.3147
▁stu	-10.315
▁uniek	-10.3152
▁bedrijfs	-10.3153
cel	-10.3155
actie	-10.3156
producten	-10.3158
▁zelfstandig	-10.3159
indische	-10.316
▁400	-10.3166
▁balkenende	-10.3169
▁brussels	-10.3172
one	-10.318
▁tegenstanders	-10.318
pu	-10.3183
▁uitgestorven	-10.3186
▁vernoemd	-10.3186
▁testament	-10.3186
▁vorige	-10.3186
golven	-10.3186
▁tegelijk	-10.3186
▁beneden	-10.3187
▁staatshoofd	-10.3188
bundel	-10.3189
▁1917	-10.319
▁keuze	-10.3191
▁zuster	-10.3192
cellen	-10.3197
ios	-10.3198
uch	-10.3198
trap	-10.3201
doel	-10.3201
▁gelegenheid	-10.3206
vervoer	-10.3208
▁binnenland	-10.321
som	-10.3211
oppervlak	-10.3213
romeinse	-10.3214
gebergte	-10.3215
▁aanzien	-10.3224
▁bisdom	-10.3229
▁plein	-10.3231
▁tre	-10.3239
▁belasting	-10.3241
▁hy	-10.3244
▁publicatie	-10.3245
▁amsterdamse	-10.3246
klo	-10.3251
korea	-10.3251
eters	-10.3253
▁doelpunt	-10.3255
▁rekening	-10.3259
lp	-10.3262
▁cy	-10.3266
▁krant	-10.3267
schi	-10.3268
▁fri	-10.3274
▁scheiding	-10.3278
komst	-10.3279
▁omvang	-10.3288
▁heydrich	-10.3288
▁verovering	-10.3289
▁zwitserland	-10.3289
▁veroverde	-10.3289
▁huid	-10.329
▁schaak	-10.3294
▁groenland	-10.3301
▁bern	-10.3301
▁filosofen	-10.3307
▁zone	-10.3312
500	-10.3327
▁pet	-10.3338
▁reizen	-10.3339
▁brachten	-10.3348
▁passen	-10.3349
engels	-10.3352
▁gegaan	-10.3354
kampioenschap	-10.3355
▁hersteld	-10.3365
grieks	-10.3366
wijze	-10.3366
vor	-10.3368
centrale	-10.3373
▁kol	-10.3385
▁wer	-10.3388
bon	-10.3388
▁eoceen	-10.3391
▁koloniën	-10.3391
▁makkelijk	-10.3391
▁verwijzing	-10.3391
tunnel	-10.3391
▁studeerde	-10.3391
▁parallel	-10.3391
▁strikt	-10.3391
▁interesse	-10.3392
▁aardappel	-10.3392
▁natuurkundige	-10.3394
▁1946	-10.3395
▁samengesteld	-10.3398
assen	-10.3413
▁wall	-10.3416
bedrijf	-10.3423
▁kost	-10.3425
alistisch	-10.3431
▁bevel	-10.3435
mus	-10.3435
▁verst	-10.3442
▁gras	-10.3454
boom	-10.3456
bron	-10.3457
▁behoorde	-10.3462
lag	-10.3463
rick	-10.3465
▁toon	-10.3466
col	-10.3473
▁middelen	-10.3474
▁stromingen	-10.3478
▁cur	-10.3486
dio	-10.3492
▁mars	-10.3495
▁benadering	-10.3495
▁enigszins	-10.3495
▁noorwegen	-10.3495
mechanisme	-10.3495
▁aldaar	-10.3495
pakket	-10.3498
▁1969	-10.35
▁zocht	-10.35
▁1949	-10.35
▁minste	-10.3502
07	-10.3509
▁duizend	-10.3513
▁spoorlijn	-10.3514
▁departement	-10.3519
frans	-10.352
voorzitter	-10.3521
▁koe	-10.3537
boeken	-10.3538
qua	-10.3542
uv	-10.3543
jaren	-10.355
▁150	-10.3551
broek	-10.356
▁manieren	-10.3564
▁vragen	-10.3566
▁optie	-10.357
▁richt	-10.3575
basis	-10.3579
08	-10.3582
▁(200	-10.3583
▁kno	-10.3595
vergelijk	-10.3597
▁aangetroffen	-10.36
▁byzantium	-10.36
▁communisme	-10.36
▁hoofdstedelijk	-10.36
▁koloniale	-10.36
▁twijfel	-10.36
▁gescheiden	-10.36
▁normaal	-10.3601
▁cap	-10.3603
▁1971	-10.3605
▁1972	-10.3605
▁tar	-10.3608
▁flink	-10.361
sloten	-10.361
▁ondertussen	-10.3613
▁treden	-10.3613
▁uitgesproken	-10.3616
ractievoorzitter	-10.3621
▁letterlijk	-10.3633
vleugel	-10.3633
▁verblijf	-10.3634
methode	-10.3638
rivier	-10.364
tot	-10.3644
onderzoek	-10.3652
"-	-10.3656
hol	-10.3659
▁koop	-10.3659
▁producent	-10.3672
▁gezamenlijk	-10.3675
▁eenheden	-10.3676
▁koper	-10.3679
▁wees	-10.3685
onne	-10.3685
▁toonde	-10.3696
wille	-10.3697
▁eenvoudige	-10.3698
▁waarom	-10.3701
▁argentinië	-10.3707
▁geïnspireerd	-10.3707
▁geïntroduceerd	-10.3707
▁immigranten	-10.3707
▁jupiter	-10.3707
▁aanvallen	-10.3707
▁keuken	-10.3707
▁sgp	-10.3707
▁steeg	-10.3708
▁1938	-10.371
9%	-10.371
▁beschreef	-10.3711
▁collectie	-10.3712
▁draagt	-10.3721
duitse	-10.3726
▁erfelijk	-10.3734
▁betreffende	-10.3743
minister	-10.3746
limburg	-10.3747
slui	-10.3748
▁onderzoekers	-10.3749
dicht	-10.375
▁+	-10.3752
▁johan	-10.3756
▁diepte	-10.3757
▁minderheid	-10.3759
▁burgerlijk	-10.3759
▁zak	-10.3763
▁bewegingen	-10.3771
minstens	-10.3775
▁onver	-10.3783
▁dia	-10.3784
▁tand	-10.3785
▁leerlingen	-10.3792
ville	-10.3801
▁kamers	-10.3812
▁nsdap	-10.3814
▁risico	-10.3814
▁verwijst	-10.3814
▁invasie	-10.3815
▁zuidelijk	-10.3815
▁opmerkelijk	-10.3815
▁planeten	-10.3815
▁verplaatst	-10.3816
▁griekenland	-10.3818
bestuur	-10.3819
▁1947	-10.382
▁1943	-10.382
▁1975	-10.3821
▁heerlen	-10.3822
▁vereist	-10.3825
▁mtoe	-10.3826
▁1848	-10.3827
▁actieve	-10.3827
▁partner	-10.383
maken	-10.3835
spoor	-10.3837
ii	-10.384
▁speelden	-10.3844
▁bat	-10.3847
lied	-10.3848
▁schrijf	-10.3849
▁versies	-10.3854
gest	-10.3855
stuk	-10.3863
iaanse	-10.3874
nederland	-10.3875
▁volle	-10.3878
ada	-10.3885
▁krachten	-10.3905
▁last	-10.3906
▁films	-10.3908
▁voorstelling	-10.391
brittannië	-10.3923
▁conservatieve	-10.3923
songfestival	-10.3923
▁migratie	-10.3923
▁formeel	-10.3923
▁turkse	-10.3925
▁elektronen	-10.3925
▁drama	-10.3926
▁bad	-10.3927
▁1985	-10.3928
▁debat	-10.3934
▁theologie	-10.3939
schrijving	-10.3939
▁helder	-10.394
▁daaropvolgend	-10.3942
▁stadion	-10.3945
▁journalist	-10.3946
▁watson	-10.3949
▁handelen	-10.3949
til	-10.3954
▁opvatting	-10.3959
verenigingen	-10.3964
▁klm	-10.3964
verbindingen	-10.3965
regering	-10.3967
pri	-10.398
▁objecten	-10.3983
ura	-10.3984
▁boe	-10.3987
▁ph	-10.3991
▁marine	-10.4013
viel	-10.4017
banen	-10.4018
▁breuk	-10.4018
lands	-10.4025
▁waarden	-10.403
▁max	-10.4031
▁componist	-10.4031
gehouden	-10.4032
▁medaille	-10.4033
▁particulier	-10.4033
▁jozef	-10.4033
▁archeologisch	-10.4033
▁gratis	-10.4033
▁culturen	-10.4033
▁herstel	-10.4034
▁uiterlijk	-10.4036
▁amstel	-10.4037
▁angeles	-10.4038
▁sterf	-10.4038
▁verkoop	-10.4045
▁gevaar	-10.4047
geleid	-10.4047
▁glas	-10.4055
hoog	-10.4059
▁erin	-10.406
▁vervolging	-10.4063
▁vaker	-10.4072
▁bur	-10.4074
familie	-10.4076
verbinding	-10.408
▁waarheid	-10.4083
hl	-10.409
▁kas	-10.4101
gedaan	-10.4105
▁gewoon	-10.4108
▁buur	-10.411
plicht	-10.4113
back	-10.4116
loot	-10.4126
▁oorlogen	-10.4127
roo	-10.4133
▁cm	-10.4138
conferentie	-10.4144
▁bidsprinkhanen	-10.4144
▁fascisme	-10.4144
▁etnische	-10.4144
▁krijt	-10.4144
▁alfred	-10.4144
▁leidt	-10.4145
rust	-10.4146
kleed	-10.4147
▁1956	-10.4148
▁voorganger	-10.415
▁malta	-10.4151
hoven	-10.4156
bro	-10.4158
▁activiteit	-10.4159
▁belg	-10.4162
court	-10.4162
▁organismen	-10.4163
gesch	-10.4163
versie	-10.4163
rutte	-10.4164
▁meende	-10.4166
▁overal	-10.4168
▁beschermen	-10.4184
▁wetgeving	-10.4187
stem	-10.4191
▁figuren	-10.4191
hem	-10.4192
klimaat	-10.4193
blo	-10.4195
republiek	-10.4196
▁zegt	-10.4197
auto	-10.4219
▁gedichten	-10.4223
▁ziet	-10.4226
logen	-10.4232
▁bou	-10.4234
▁rec	-10.4237
▁dorpen	-10.424
▁beurs	-10.4243
▁dijk	-10.4244
rijp	-10.4248
nevel	-10.4252
liet	-10.4256
▁michaël	-10.4256
▁groningen	-10.4256
▁zuidwesten	-10.4256
▁mandela	-10.4257
▁plaatsvond	-10.4257
▁senaat	-10.4257
▁afgebeeld	-10.4259
mol	-10.4264
gul	-10.4265
▁droge	-10.4269
aux	-10.4274
▁q	-10.4274
vertegenwoordigd	-10.4275
▁geneeskunde	-10.429
▁betalen	-10.4293
▁public	-10.4294
▁beperkte	-10.43
▁verzoek	-10.43
lagen	-10.4306
°	-10.4307
▁gestuurd	-10.4312
▁continenten	-10.4316
▁verbindingen	-10.4316
▁instituut	-10.4325
▁vlees	-10.4329
wat	-10.4329
gere	-10.4331
▁leefde	-10.4338
chen	-10.434
▁armen	-10.4342
▁stro	-10.4346
▁arbeid	-10.4355
wind	-10.436
arc	-10.4364
▁ren	-10.4365
fin	-10.4367
taan	-10.4368
▁wilhelm	-10.4369
▁cultureel	-10.437
▁greenpeace	-10.437
▁linux	-10.437
▁negatieve	-10.437
▁sneeuw	-10.437
▁saddam	-10.437
▁gauss	-10.437
▁inheemse	-10.437
patiënt	-10.4372
▁athene	-10.4373
haus	-10.4373
▁kunstschilder	-10.4377
▁belgen	-10.4379
▁danken	-10.4381
▁kranten	-10.4382
▁mooi	-10.4384
▁inkomen	-10.4385
▁wereldwijde	-10.4388
▁paas	-10.4388
▁rassen	-10.439
▁fout	-10.439
▁(2	-10.4393
▁allemaal	-10.4399
bergen	-10.4401
comp	-10.441
▁metaal	-10.4416
heen	-10.4419
lib	-10.442
scholen	-10.4425
klein	-10.4426
▁geï	-10.4426
▁kat	-10.4429
▁aspecten	-10.4433
my	-10.4443
▁bay	-10.4443
stoot	-10.4448
ping	-10.4449
▁moslim	-10.4454
▁hypothese	-10.4456
teur	-10.4461
democratisch	-10.4461
voet	-10.4467
ële	-10.4472
▁collega	-10.4485
▁gedefinieerd	-10.4485
▁vernietigd	-10.4485
▁verwijderd	-10.4485
▁impressionist	-10.4485
▁heerst	-10.4486
▁originele	-10.4487
▁verleend	-10.4488
▁1987	-10.4489
▁pool	-10.4489
▁nobel	-10.4489
▁ijzer	-10.449
▁1958	-10.449
▁gnu	-10.4493
▁aanhangers	-10.4493
▁binnenlandse	-10.4497
▁tabel	-10.45
▁aex	-10.4502
▁zanger	-10.4504
▁liter	-10.4506
▁weerstand	-10.4506
▁leefden	-10.4519
▁belangen	-10.452
▁tweemaal	-10.4521
▁dalen	-10.4523
▁dreig	-10.453
▁slaan	-10.4538
bureau	-10.4541
commissie	-10.4542
massa	-10.4542
▁bureau	-10.4545
▁comité	-10.4547
▁kathedraal	-10.4551
▁complexe	-10.4552
partijen	-10.4552
bul	-10.4559
▁overgang	-10.4561
lucht	-10.4565
kap	-10.4565
soort	-10.4566
polder	-10.4568
▁militairen	-10.4569
▁zuidoosten	-10.4582
▁heilig	-10.4586
rm	-10.4587
teit	-10.4588
▁vermoed	-10.4591
vier	-10.4592
lijf	-10.4593
wil	-10.4599
▁hoogleraar	-10.4601
▁vergeleken	-10.4601
▁autoriteit	-10.4601
▁systematisch	-10.4601
▁maatregelen	-10.4602
▁gewoonlijk	-10.4603
▁uyl	-10.4603
▁hangt	-10.4604
▁1936	-10.4605
▁elders	-10.4605
▁hotel	-10.4605
▁theorieën	-10.4608
▁voren	-10.4609
▁gepaard	-10.461
▁onderhoud	-10.4613
▁royal	-10.4613
▁ras	-10.4614
▁volkeren	-10.4615
duur	-10.4628
oosten	-10.4636
▁roland	-10.4641
verbod	-10.4643
▁hermann	-10.4648
▁eth	-10.4652
pact	-10.4664
ction	-10.4667
▁300	-10.4669
▁dynastie	-10.4674
▁impressionisme	-10.4676
▁eerdere	-10.4676
chem	-10.4677
,4	-10.4677
ming	-10.4678
▁noordwesten	-10.468
▁voc	-10.4686
evenement	-10.4688
▁eisen	-10.4691
spin	-10.47
▁christelijk	-10.47
▁constructie	-10.4702
▁central	-10.4708
▁natuurlijk	-10.4713
▁mm	-10.4714
▁advies	-10.4719
▁inderdaad	-10.4719
▁voltooid	-10.4719
▁bestudeerd	-10.4719
▁lpf	-10.4719
▁iraanse	-10.472
▁smelt	-10.472
blik	-10.4721
▁francisco	-10.4721
▁hollands	-10.4722
hoorn	-10.4723
▁1934	-10.4723
▁stalin	-10.4724
▁1951	-10.4724
▁vliegveld	-10.4726
▁beschrijven	-10.4727
▁1966	-10.4731
▁gaven	-10.4733
▁zeventiende	-10.4733
kundig	-10.4749
▁gods	-10.475
snelheid	-10.4752
enburg	-10.4761
tius	-10.4763
▁gevraagd	-10.4765
▁dekker	-10.4768
▁gehoor	-10.4769
▁werkelijk	-10.4775
▁feitelijk	-10.4777
$	-10.4781
energie	-10.4781
front	-10.4782
5.000	-10.4782
woon	-10.4792
bak	-10.4794
▁war	-10.4795
speel	-10.4798
eigen	-10.4799
plaat	-10.4808
▁taken	-10.4811
▁bestonden	-10.4812
▁vooruit	-10.4813
rik	-10.4814
▁ya	-10.4814
doen	-10.4816
▁sam	-10.4824
staande	-10.4825
▁henin	-10.4826
▁bali	-10.4828
▁33	-10.4831
▁gat	-10.4832
oni	-10.4833
▁explosie	-10.4838
▁turkije	-10.4838
▁toegestaan	-10.4838
▁gespecialiseerd	-10.4838
▁nigeria	-10.4838
▁processor	-10.4838
▁overwegend	-10.4838
▁vandaag	-10.4839
▁verzorgd	-10.484
▁gerard	-10.4842
▁lezing	-10.4843
▁vredes	-10.4846
▁professionele	-10.4858
betaling	-10.4863
teelt	-10.4866
▁leed	-10.4867
▁doek	-10.4869
ctu	-10.4876
velden	-10.4876
och	-10.4881
▁verricht	-10.4885
▁specifiek	-10.4887
▁beroeps	-10.4892
▁zoeken	-10.4897
▁kwestie	-10.4899
▁vakgebied	-10.4905
▁uitgebreide	-10.4907
▁vrienden	-10.4911
chte	-10.4913
▁warme	-10.4916
sector	-10.4919
vormige	-10.4919
opleiding	-10.4919
grad	-10.4921
▁variant	-10.4925
enberg	-10.4928
werker	-10.4929
zang	-10.4929
▁un	-10.4937
ronde	-10.4939
vlak	-10.495
▁aantallen	-10.495
▁bouwde	-10.4954
▁boudewijn	-10.4958
▁grammatica	-10.4958
▁programmeertaal	-10.4958
▁veelvuldig	-10.4958
▁overijssel	-10.4958
▁eyck	-10.4958
▁geloven	-10.4959
▁uitvinding	-10.4959
▁romantiek	-10.496
▁zonnestelsel	-10.496
▁ruimtevaart	-10.4961
▁1929	-10.4962
mber	-10.4967
▁mannetjes	-10.4968
▁borst	-10.4971
kruis	-10.4973
▁schilderij	-10.4975
▁basketbal	-10.4976
▁daalde	-10.4978
▁deelnemen	-10.498
▁duidelijke	-10.4985
▁feestdag	-10.4986
▁rekenen	-10.499
▁eg	-10.4991
▁afgezet	-10.4992
wedstrijden	-10.4993
▁zevende	-10.4995
▁zoet	-10.4995
▁andre	-10.5
leving	-10.5002
▁juiste	-10.5006
▁veilig	-10.5008
▁behoefte	-10.5014
▁fossielen	-10.5014
▁allen	-10.5017
▁deelname	-10.5018
gebouwd	-10.5024
scherm	-10.5025
brugge	-10.5036
▁fundament	-10.504
▁dateert	-10.5045
lies	-10.5051
▁termen	-10.5051
▁warm	-10.5059
▁fel	-10.506
▁indo	-10.5068
serie	-10.5068
▁rob	-10.5072
von	-10.5072
▁opname	-10.5074
▁mochten	-10.5077
academi	-10.5078
▁wester	-10.5079
structure	-10.508
▁bepaalt	-10.508
▁gecombineerd	-10.508
▁hoeveelheden	-10.508
▁identiteit	-10.508
▁introduceerde	-10.508
▁nicolaas	-10.508
▁onderzocht	-10.508
▁produceren	-10.508
▁verdween	-10.508
▁verkregen	-10.508
▁waarnemer	-10.508
▁uitgezonden	-10.5081
fran	-10.5081
▁aangewezen	-10.5081
▁gewijd	-10.5082
▁rechtbank	-10.5083
▁1964	-10.5086
▁toegeschreven	-10.5088
▁stappen	-10.5089
kv	-10.509
verkochte	-10.5094
▁bart	-10.5095
▁zeeland	-10.5096
▁ontwerpen	-10.5098
▁latijns	-10.5099
schrijver	-10.5102
▁noordelijk	-10.5102
▁metalen	-10.5104
▁hin	-10.5107
uter	-10.5109
▁vestigden	-10.5113
▁verbond	-10.5115
woud	-10.512
▁vlieg	-10.5122
▁woning	-10.5131
▁haags	-10.5132
onderwijs	-10.5135
▁(10	-10.5137
▁vooraf	-10.5145
+	-10.515
systemen	-10.5151
continent	-10.5151
▁motor	-10.5153
▁lieten	-10.5159
▁tel	-10.5163
pha	-10.5163
llo	-10.5164
illa	-10.5165
%)	-10.5165
regels	-10.5167
waard	-10.5171
ijk	-10.5172
▁bijdrage	-10.5174
keten	-10.5177
▁bes	-10.5181
▁mij	-10.5182
dagen	-10.5185
rol	-10.5194
gal	-10.5196
▁voorstellen	-10.5196
gave	-10.5197
▁stor	-10.5202
snede	-10.5203
planten	-10.5204
▁argument	-10.5204
▁vestiging	-10.5204
▁vreemd	-10.5204
▁verschijnen	-10.5204
stijging	-10.5204
▁overtuigd	-10.5207
▁uitmaakt	-10.5207
organisaties	-10.5207
▁exact	-10.5207
▁leveren	-10.5207
zaam	-10.5207
▁1984	-10.5208
▁1954	-10.5209
▁verteld	-10.521
▁port	-10.5212
buis	-10.5224
▁laagste	-10.5225
▁straling	-10.5227
▁star	-10.5227
▁verdeling	-10.5233
▁transistor	-10.5236
rode	-10.524
beelden	-10.5247
stap	-10.5249
▁monumenten	-10.5251
▁afstanden	-10.5254
▁arabisch	-10.5256
▁opper	-10.526
▁hond	-10.5261
reken	-10.5276
[	-10.5277
▁klassen	-10.528
pop	-10.5284
▁verspreiding	-10.5288
▁ontwikkelden	-10.5289
fl	-10.5296
▁voedings	-10.531
";	-10.531
▁bestuurd	-10.5311
vic	-10.5325
▁bezienswaardig	-10.5329
▁carnaval	-10.5329
▁muzikal	-10.5329
▁palestijnse	-10.5329
▁geraakt	-10.5329
▁gevierd	-10.5329
▁erkenning	-10.5329
▁wim	-10.5329
▁zelden	-10.533
▁afgesloten	-10.533
▁slavische	-10.533
▁wettelijk	-10.5331
socialisme	-10.5331
▁ziek	-10.5332
▁noordoosten	-10.5333
▁1962	-10.5333
▁pad	-10.5333
▁jongere	-10.5334
▁begrippen	-10.5335
▁lezer	-10.5337
▁afgelopen	-10.5338
▁russen	-10.5339
▁tank	-10.534
▁plekken	-10.5342
netwerk	-10.5342
zetel	-10.5348
▁1870	-10.5349
ffer	-10.5353
▁oostenrijkse	-10.5357
motor	-10.5359
▁eenmaal	-10.5361
▁simon	-10.5363
▁redelijk	-10.5366
▁harmonie	-10.5366
▁island	-10.5369
▁adam	-10.537
▁houding	-10.5371
▁gewicht	-10.5378
▁opbouw	-10.5379
▁sj	-10.5379
koning	-10.538
▁vu	-10.5385
letter	-10.5387
gat	-10.5394
▁opzicht	-10.5396
▁voorkomt	-10.5399
▁camera	-10.54
▁pim	-10.5401
verandering	-10.5406
wetenschappen	-10.5409
idae	-10.5414
▁dingen	-10.5416
▁han	-10.5418
▁voorwaarden	-10.542
▁waarnemingen	-10.5421
▁experiment	-10.5421
▁vestigde	-10.5422
▁bak	-10.5423
best	-10.5432
▁mc	-10.5436
▁jos	-10.544
▁veen	-10.5442
rif	-10.5451
▁deelnemers	-10.5455
▁gewijzigd	-10.5455
▁jacques	-10.5455
▁mussolini	-10.5455
▁populariteit	-10.5455
▁strategisch	-10.5455
▁adolf	-10.5455
▁bedroeg	-10.5455
▁verliezen	-10.5455
▁verbleef	-10.5455
▁vertrouwen	-10.5456
▁gesteund	-10.5456
▁atoom	-10.5456
▁roemeense	-10.5457
▁maximaal	-10.5457
▁veroveren	-10.5457
▁behandeld	-10.5458
▁1924	-10.5461
▁schatting	-10.5471
ificeerd	-10.5472
▁documenten	-10.5473
▁aanslagen	-10.5473
▁klink	-10.5474
▁spoorweg	-10.5474
▁tol	-10.5475
osfeer	-10.5479
oven	-10.5481
▁bossen	-10.5482
▁domin	-10.5482
▁route	-10.5487
▁percentage	-10.5496
▁pic	-10.5497
▁wijzen	-10.5497
▁1500	-10.5498
▁schilderen	-10.5503
▁diploma	-10.5507
▁plaat	-10.5509
▁publicaties	-10.5513
▁dominante	-10.5517
nacht	-10.5523
-2	-10.5528
slaan	-10.5529
▁tram	-10.5533
structuur	-10.5536
honderd	-10.5536
week	-10.5537
▁volksver	-10.5538
vocht	-10.5538
▁koel	-10.554
▁bevrijd	-10.5546
dar	-10.5546
-17	-10.5546
▁nader	-10.5552
▁factoren	-10.5555
▁invoer	-10.5558
▁uitgever	-10.5563
▁pot	-10.5568
regel	-10.5574
▁varianten	-10.5575
▁families	-10.5576
▁artiesten	-10.5584
▁grondlegger	-10.5584
▁critici	-10.5584
▁vluchtelingen	-10.5584
▁lijden	-10.5584
▁prestatie	-10.5584
▁theoretisch	-10.5584
▁helling	-10.5584
▁gegeten	-10.5584
▁canada	-10.5584
▁service	-10.5584
▁beschouwen	-10.5585
▁losse	-10.5586
▁beschrijft	-10.5586
▁zelfmoord	-10.5587
▁ijstijd	-10.5588
doende	-10.5589
▁1959	-10.559
▁versloeg	-10.5591
gehalte	-10.5591
▁schil	-10.5595
▁gevoel	-10.5595
▁overgeleverd	-10.5597
▁1815	-10.56
▁opgesteld	-10.5602
▁welvaart	-10.5605
rou	-10.5616
▁missie	-10.5617
daal	-10.5618
▁anno	-10.5621
kwartier	-10.5623
▁bevrijding	-10.5623
gla	-10.5628
▁offer	-10.5642
▁schol	-10.5642
cycl	-10.5646
▁leiders	-10.5648
▁israëlisch	-10.5654
wie	-10.5655
▁voorbereiding	-10.5665
▁bedrag	-10.5666
trent	-10.5668
▁vluchten	-10.5668
ondank	-10.5668
▁game	-10.567
▁wan	-10.5672
▁sloeg	-10.5674
mun	-10.5688
▁bekendheid	-10.5691
▁wisten	-10.5696
▁vrouwtje	-10.5703
▁kre	-10.5709
▁russisch	-10.5711
ijt	-10.5711
ami	-10.5713
▁toegankelijk	-10.5714
▁expressionisme	-10.5714
▁geproduceerd	-10.5714
▁heinrich	-10.5714
▁reptielen	-10.5714
▁schiereiland	-10.5714
▁sittard	-10.5714
▁onmiddellijk	-10.5714
▁politici	-10.5714
▁academische	-10.5714
▁fruit	-10.5714
▁verlichting	-10.5714
zag	-10.5714
▁formele	-10.5714
▁aangesloten	-10.5714
▁ervaren	-10.5714
++	-10.5715
eenheid	-10.5715
▁legende	-10.5716
▁inkomsten	-10.5717
,6	-10.5718
▁positieve	-10.5721
▁samenhang	-10.5722
oude	-10.5722
▁vandalen	-10.5722
▁gemeenschappen	-10.5725
sluiting	-10.5727
▁voorwerp	-10.5728
▁verkiezings	-10.5731
▁tekenen	-10.5731
▁reg	-10.5732
▁bood	-10.5732
▁boeddhisme	-10.5736
▁45	-10.5744
▁jarenlang	-10.5745
▁trek	-10.5748
▁secretaris	-10.5753
ieke	-10.5768
▁liberalen	-10.5768
▁voorjaar	-10.5769
▁afval	-10.577
▁mega	-10.577
▁tafel	-10.5772
▁architecten	-10.5775
streek	-10.5779
▁gelijke	-10.578
control	-10.578
verhalen	-10.5788
tempel	-10.579
uff	-10.5795
akkoord	-10.5801
ruimte	-10.5802
▁dichters	-10.581
poten	-10.5821
▁vleugel	-10.5823
volle	-10.5832
gevallen	-10.5834
▁spaans	-10.584
maat	-10.5841
▁impuls	-10.5845
▁gunstig	-10.5845
▁isotopen	-10.5845
▁moeite	-10.5845
hin	-10.5846
▁symbolen	-10.5846
▁alsmede	-10.5847
▁blue	-10.5849
▁1922	-10.585
▁gewerkt	-10.585
▁blanke	-10.585
▁1928	-10.585
vooral	-10.5852
▁fijn	-10.5864
▁systemen	-10.5865
technisch	-10.5867
▁rum	-10.5881
▁zang	-10.5887
vlek	-10.5891
_1	-10.5892
ruis	-10.59
▁filips	-10.5908
▁ram	-10.5908
nov	-10.5908
▁omroep	-10.5915
▁schilderde	-10.592
bourg	-10.5924
test	-10.5931
▁verkeers	-10.5932
golf	-10.5936
temperatuur	-10.5936
economie	-10.5936
▁christen	-10.5941
▁deense	-10.5947
gelegen	-10.5948
▁tradities	-10.595
▁ertoe	-10.5954
▁geleerden	-10.5955
▁bom	-10.5956
▁marie	-10.5956
▁pagina	-10.5959
▁deeltjes	-10.5959
▁ernst	-10.5967
▁dor	-10.5976
voeding	-10.5977
▁schip	-10.5977
ky	-10.5978
▁decennium	-10.5978
▁frederik	-10.5978
▁mythologie	-10.5978
▁verbindt	-10.5978
▁werknemers	-10.5978
▁figuur	-10.5978
▁infrastructuur	-10.5978
▁aanpassing	-10.5978
▁ondersteuning	-10.5978
▁mount	-10.5978
▁pruisen	-10.5978
▁erfgoed	-10.5979
▁horeca	-10.5979
ongeluk	-10.5979
▁ondersteunen	-10.5979
▁garros	-10.598
register	-10.5981
▁stoppen	-10.5983
▁tim	-10.5984
▁betere	-10.5988
▁bewijzen	-10.5989
gl	-10.599
hoor	-10.5995
korps	-10.5995
▁ontmoette	-10.5998
▁noch	-10.6
▁toont	-10.6
concentratiekamp	-10.6
▁concentratie	-10.6001
▁ruil	-10.6006
▁graafschap	-10.6006
▁linkse	-10.6009
▁sociaaldemocrat	-10.6014
▁inzichten	-10.6024
▁zwem	-10.6027
bewerking	-10.6041
ate	-10.6042
▁ty	-10.6056
▁geleerd	-10.6061
▁bloemen	-10.6072
kli	-10.6073
vermogen	-10.6073
college	-10.6073
fried	-10.6076
▁katholiek	-10.608
oem	-10.6082
vig	-10.6083
▁katholieken	-10.6088
▁klei	-10.6091
bol	-10.6097
koop	-10.6102
▁overeenkomst	-10.6103
detective	-10.6114
instructie	-10.6114
▁alternatieve	-10.6114
▁antarctica	-10.6114
▁bedreigd	-10.6114
▁browser	-10.6114
▁extreem	-10.6114
▁millennium	-10.6114
▁pakistan	-10.6114
▁parochie	-10.6114
▁scheepvaart	-10.6114
▁verondersteld	-10.6114
▁gezondheidszorg	-10.6114
▁statistiek	-10.6114
▁platteland	-10.6114
▁veertig	-10.6114
▁etappe	-10.6114
▁verandert	-10.6114
▁primair	-10.6114
▁schrijft	-10.6114
▁onduidelijk	-10.6115
▁cast	-10.6115
▁monarchie	-10.6115
▁zeeniveau	-10.6118
▁1935	-10.6119
▁1965	-10.6121
▁bord	-10.6121
▁helpen	-10.6123
▁vrouwelijke	-10.6123
▁modellen	-10.6124
▁beker	-10.6125
▁individu	-10.6126
▁evenaar	-10.6128
▁verslaan	-10.613
▁bijeen	-10.6135
▁kerkelijke	-10.6137
formatie	-10.6142
plat	-10.6143
heren	-10.6148
via	-10.6149
▁ruimtelijk	-10.6153
▁heette	-10.6154
▁romans	-10.6158
▁bijdragen	-10.6169
▁wonder	-10.617
▁inzet	-10.6172
laten	-10.618
▁data	-10.6181
-200	-10.6182
unc	-10.6185
oudgrieks	-10.6187
▁invloeden	-10.6191
▁heide	-10.6205
rug	-10.6205
▁hou	-10.6211
▁(14	-10.6211
kabinet	-10.6212
literatuur	-10.6212
▁cu	-10.6215
geboren	-10.6217
▁technieken	-10.6219
stich	-10.6222
▁bevonden	-10.6223
kw	-10.6223
▁sporten	-10.6226
ida	-10.6228
▁kampioen	-10.6236
▁koningen	-10.624
▁34	-10.6246
▁gor	-10.6249
▁passagiers	-10.6251
▁algerije	-10.6251
▁continu	-10.6251
▁daadwerkelijk	-10.6251
▁hindenburg	-10.6251
▁uitspraken	-10.6251
▁verdwijnen	-10.6251
▁stijgen	-10.6251
▁werkloosheid	-10.6251
▁schedel	-10.6251
▁staatsgreep	-10.6252
▁flora	-10.6252
▁byte	-10.6253
▁herkomst	-10.6255
▁lente	-10.6255
▁1961	-10.6256
▁zaad	-10.6256
▁1963	-10.6257
archi	-10.6258
▁frankische	-10.6259
▁strand	-10.626
contract	-10.6262
pho	-10.6264
▁kool	-10.6272
▁vijanden	-10.6273
elli	-10.6274
twee	-10.6275
▁ingesteld	-10.6275
▁wortels	-10.6277
▁uitgaven	-10.6282
▁marc	-10.6283
▁zuidoost	-10.6284
▁winkels	-10.6285
ér	-10.6292
server	-10.6302
▁socialisten	-10.6306
▁natur	-10.6313
kade	-10.6316
▁groeiende	-10.6318
▁albums	-10.632
▁praktische	-10.6327
fotografie	-10.6329
chan	-10.6334
▁conflicten	-10.634
steek	-10.6343
▁verzameld	-10.6344
▁afbeeldingen	-10.6346
▁36	-10.635
festival	-10.6353
artikel	-10.6353
vogels	-10.6355
▁sun	-10.6358
▁800	-10.636
lau	-10.636
▁kenmerkend	-10.6369
▁nij	-10.6373
kanalen	-10.6377
▁dik	-10.6381
mannen	-10.6383
▁disc	-10.6383
▁onderzoeken	-10.6384
▁conclusie	-10.6389
▁exemplaren	-10.6389
competitie	-10.6389
signaal	-10.6389
▁andorra	-10.6389
▁beperking	-10.6389
▁gedood	-10.6389
▁plaatsvinden	-10.639
heffing	-10.639
▁blijken	-10.639
nassau	-10.639
▁omstreden	-10.6391
▁koninklijk	-10.6391
▁bezat	-10.6391
▁spanningen	-10.6393
fonie	-10.6393
▁toestemming	-10.6393
▁rijksdag	-10.6393
▁luchtvaart	-10.6394
▁ontbreken	-10.6394
▁otto	-10.6395
▁duiden	-10.6399
▁vld	-10.64
▁vecht	-10.6405
▁ernstige	-10.6406
later	-10.6411
▁bevond	-10.6418
heem	-10.6422
▁ritme	-10.6423
legging	-10.6428
▁beschouwde	-10.6429
▁wedero	-10.643
ergens	-10.6433
▁wortel	-10.6445
kal	-10.6449
▁39	-10.6449
▁hieruit	-10.6453
▁gereformeerde	-10.6458
olo	-10.646
▁vee	-10.6461
tegenwoordigers	-10.6465
▁werkzaam	-10.6469
▁dubbele	-10.6472
▁platform	-10.6475
tegenwoordig	-10.6478
▁opgebouwd	-10.6481
▁burgemeesters	-10.6481
wijzen	-10.6485
duizend	-10.6494
achter	-10.6497
▁leen	-10.65
waaronder	-10.65
regeling	-10.6501
▁fan	-10.6503
social	-10.651
▁correct	-10.6511
bord	-10.6512
▁kijken	-10.6517
function	-10.653
▁bestuderen	-10.653
▁expeditie	-10.653
▁mercurius	-10.653
▁moskou	-10.653
▁verbeteren	-10.653
▁wallonië	-10.653
▁organiseerde	-10.653
▁personeel	-10.653
▁riemann	-10.653
▁vertoont	-10.653
▁stichtte	-10.653
▁extreme	-10.653
▁talrijke	-10.6531
▁levert	-10.6532
▁communisten	-10.6532
▁verwerkt	-10.6532
▁voelde	-10.6532
▁dubbelspel	-10.6533
▁fundamentele	-10.6533
▁bevoegdheid	-10.6535
▁bomen	-10.6535
▁fossiele	-10.6536
▁jacht	-10.6536
▁staking	-10.6537
▁echtgenote	-10.6538
▁wisselen	-10.6541
▁mythe	-10.6542
▁non	-10.6542
▁vergroot	-10.6543
▁daartoe	-10.6545
▁phil	-10.6546
▁cri	-10.656
▁bescherm	-10.6562
▁omhoog	-10.6565
oma	-10.6572
▁studies	-10.6578
▁blauwe	-10.6587
▁methoden	-10.6591
▁dagelijkse	-10.6593
▁felle	-10.6596
▁achtste	-10.6597
▁procedure	-10.6608
▁datum	-10.6617
▁storm	-10.6621
verdeling	-10.6621
horst	-10.6622
ibn	-10.6623
▁nummers	-10.6628
▁ramp	-10.6637
ics	-10.6638
fries	-10.6639
heilig	-10.664
arbeid	-10.664
instrument	-10.664
congres	-10.6641
án	-10.6644
▁stemming	-10.6646
volk	-10.6646
turn	-10.6646
▁und	-10.665
▁voorwerpen	-10.6654
▁mantel	-10.6656
missie	-10.6656
▁alternatief	-10.6673
▁doesburg	-10.6673
▁juridisch	-10.6673
▁justitie	-10.6673
▁overgebleven	-10.6673
▁recreatie	-10.6673
▁sediment	-10.6673
▁verdedigen	-10.6673
▁omgekeerd	-10.6673
▁bedoeling	-10.6673
▁verdacht	-10.6673
▁historici	-10.6673
▁financieel	-10.6674
▁andré	-10.6675
student	-10.6676
▁turing	-10.6677
▁1905	-10.6677
▁onrust	-10.6678
zoon	-10.6679
▁essenti	-10.668
▁bestemming	-10.6681
▁toegenomen	-10.6684
▁woningen	-10.6687
▁onderstaande	-10.6696
▁religieus	-10.6699
▁lees	-10.6707
▁hongaarse	-10.6711
▁blauw	-10.6711
pur	-10.6714
▁leerling	-10.6714
▁cat	-10.6722
▁oceanen	-10.6727
▁schakel	-10.6729
▁duurt	-10.6732
▁120	-10.6734
bot	-10.6735
donk	-10.6736
▁wapens	-10.6736
▁bezette	-10.6737
▁bell	-10.6739
lieden	-10.674
▁leerde	-10.6741
▁anne	-10.6752
▁groente	-10.6755
▁perl	-10.6771
kö	-10.6779
▁elektro	-10.678
verschillen	-10.6791
▁principes	-10.6794
▁overeenkomsten	-10.6794
rusland	-10.6795
trans	-10.6796
▁polder	-10.6796
▁grootschalige	-10.6798
ish	-10.68
▁experimenten	-10.6802
▁bruggen	-10.6803
▁krachtig	-10.6804
▁behaald	-10.6806
▁real	-10.6807
▁you	-10.6808
▁vervaardigd	-10.6808
▁bands	-10.6817
▁slo	-10.6818
apparaat	-10.6818
▁archimedes	-10.6818
▁immigratie	-10.6818
▁intellectuele	-10.6818
▁stabiliteit	-10.6818
▁benoeming	-10.6818
▁beschaving	-10.6818
▁gemengd	-10.6818
▁politicus	-10.6818
▁variëren	-10.6818
▁selectie	-10.6818
▁profeet	-10.6818
▁variatie	-10.6818
▁oordeel	-10.6818
▁brengt	-10.6818
moskee	-10.6818
▁isaac	-10.6819
▁bondgenoot	-10.682
▁brieven	-10.682
▁verschijnselen	-10.6824
techniek	-10.6824
▁dagblad	-10.6825
▁1937	-10.6825
▁parlementaire	-10.6826
▁klaar	-10.6827
▁angel	-10.6829
▁volken	-10.6831
▁trias	-10.6832
onia	-10.6833
▁verwijzen	-10.6834
▁semi	-10.6845
▁1830	-10.6847
▁tv	-10.6849
▁(5	-10.6854
paar	-10.6856
0%	-10.6861
dier	-10.6866
▁startte	-10.687
▁cirkel	-10.6875
halen	-10.6877
▁aankomst	-10.688
▁factor	-10.6891
▁fysieke	-10.6891
▁overleven	-10.6895
▁amerikaans	-10.6906
kor	-10.6908
phi	-10.6911
▁omvatte	-10.6921
▁ara	-10.6926
singel	-10.6931
▁(4	-10.6933
universiteit	-10.6937
pak	-10.6939
▁homo	-10.6943
▁overgangs	-10.6945
▁verwachting	-10.6947
▁geheugen	-10.6965
▁satelliet	-10.6965
▁efficiënt	-10.6965
▁reputatie	-10.6965
▁voorlopig	-10.6965
▁langdurig	-10.6965
▁uitgeroepen	-10.6965
▁primaten	-10.6965
guyana	-10.6965
▁gustav	-10.6965
gedreven	-10.6965
▁getuigen	-10.6966
▁ondersteund	-10.6967
▁districten	-10.6968
▁jodendom	-10.6968
▁terugkeren	-10.6969
▁continentale	-10.6969
examen	-10.697
▁1952	-10.697
▁liber	-10.6971
▁bloot	-10.6973
filter	-10.6973
▁beheerst	-10.6973
tracht	-10.6974
▁1912	-10.6975
▁italiaans	-10.6976
▁geur	-10.6977
▁weergegeven	-10.6977
▁besteed	-10.6978
▁mus	-10.6981
isschi	-10.6981
box	-10.6981
▁stenen	-10.6987
▁steken	-10.6998
▁160	-10.6999
▁deelstaat	-10.7002
▁vergelijkba	-10.7008
▁gezamenlijke	-10.701
▁munten	-10.7039
▁diepe	-10.7041
broeder	-10.7048
nederlands	-10.7061
▁probeer	-10.7072
▁wijzigingen	-10.7074
▁keur	-10.708
▁vervolg	-10.7083
bewust	-10.7088
ontwikkeling	-10.7089
innen	-10.709
national	-10.709
▁sloten	-10.7092
plo	-10.7096
▁typische	-10.7098
eenheden	-10.7099
▁paarden	-10.7102
schepen	-10.7103
▁ernstig	-10.7112
gesplitst	-10.7114
slowakije	-10.7114
verschuiving	-10.7114
▁aardbeving	-10.7114
▁negatief	-10.7114
▁referendum	-10.7114
▁saturnus	-10.7114
▁lidmaatschap	-10.7114
▁navolging	-10.7114
▁verwierf	-10.7114
▁vloeistof	-10.7114
▁amateur	-10.7114
▁update	-10.7114
materialen	-10.7114
▁vracht	-10.7114
▁winterspelen	-10.7114
▁verdragen	-10.7115
▁bewoond	-10.7115
▁training	-10.7115
▁goddelijke	-10.7116
▁gemeten	-10.7116
▁vertonen	-10.7116
▁center	-10.7116
▁evenementen	-10.7117
▁relaties	-10.7119
▁kamerlid	-10.712
zeer	-10.7124
▁stromen	-10.7126
▁proza	-10.7126
▁veertien	-10.7127
▁resten	-10.7132
▁free	-10.7134
▁verschijnsel	-10.7153
▁astronomie	-10.7154
zaken	-10.7157
▁intussen	-10.7161
▁score	-10.7165
▁abd	-10.7174
meter	-10.7189
wijn	-10.7191
▁tin	-10.7204
▁passie	-10.7205
▁nul	-10.7207
gur	-10.7207
▁resulteerde	-10.7214
▁main	-10.7214
▁uitgave	-10.7215
zar	-10.7216
gezond	-10.7222
▁orkest	-10.7222
▁dreigde	-10.7224
waal	-10.7225
liggende	-10.7226
▁recent	-10.723
drie	-10.723
▁hielden	-10.7237
▁ondergrond	-10.7239
greep	-10.724
gehaald	-10.7241
problemen	-10.7242
frankrijk	-10.7243
regime	-10.725
straling	-10.7252
▁zonen	-10.7257
time	-10.7259
▁bibliotheken	-10.7266
▁concilie	-10.7266
▁strategie	-10.7266
▁dictator	-10.7266
▁website	-10.7266
▁ingrijpen	-10.7266
▁fermat	-10.7266
▁medium	-10.7266
▁automatisch	-10.7266
▁kleding	-10.7266
▁verkrijgen	-10.7266
▁suiker	-10.7266
▁reageerde	-10.7266
▁geschat	-10.7267
▁space	-10.7267
▁weleens	-10.7267
▁simpel	-10.7267
▁getijden	-10.7267
▁piano	-10.7268
▁effecten	-10.7271
▁1923	-10.7271
▁1957	-10.7272
▁biologie	-10.7273
proberen	-10.7273
▁temse	-10.7274
▁sterven	-10.7276
▁stille	-10.7276
tuin	-10.7277
fabrikant	-10.7277
▁wandel	-10.7281
▁grave	-10.7283
▁contacten	-10.7285
wedstrijd	-10.7285
▁beheerd	-10.7287
▁bakker	-10.7287
▁seconden	-10.7289
▁anc	-10.729
▁enorm	-10.7291
spannen	-10.7296
astro	-10.7302
oogst	-10.7306
▁zelfstandige	-10.7307
▁verwante	-10.7308
▁vakbond	-10.7308
▁method	-10.7311
▁leon	-10.7313
▁aanwijzingen	-10.7314
▁onbekend	-10.7314
▁38	-10.7315
▁waarnemen	-10.7316
▁camp	-10.7321
▁oeuvre	-10.7322
▁clo	-10.7327
▁waarneming	-10.7334
atom	-10.7338
leger	-10.7338
▁navo	-10.7338
communist	-10.7338
chor	-10.7355
▁werkten	-10.7357
borg	-10.7358
▁human	-10.736
▁geheime	-10.7363
germaanse	-10.7366
▁wijziging	-10.7373
historisch	-10.7379
▁fragmenten	-10.738
▁boodschap	-10.7384
▁gebonden	-10.7386
▁bijnaam	-10.7386
▁voldoen	-10.7388
grenzen	-10.7389
▁hindoes	-10.7397
▁sin	-10.7398
partner	-10.7398
monument	-10.7398
activiteit	-10.7398
▁zover	-10.7399
pieters	-10.7406
kritisch	-10.7407
▁ham	-10.7411
▁mode	-10.7419
▁beschikken	-10.742
▁geïsoleerd	-10.742
▁interview	-10.742
▁kolonisten	-10.742
▁mioceen	-10.742
▁oligoceen	-10.742
▁palestina	-10.742
▁periodiek	-10.742
▁resolutie	-10.742
▁vrijwillig	-10.742
▁draaien	-10.742
▁kondigde	-10.742
▁schijf	-10.742
▁beslist	-10.742
▁psychoanalyse	-10.742
▁scoorde	-10.742
▁overlevering	-10.742
▁fauna	-10.7421
▁broncode	-10.7423
▁donau	-10.7423
▁orgaan	-10.7424
▁fifa	-10.7425
▁experimentele	-10.7425
▁1932	-10.7426
▁1953	-10.7427
▁1921	-10.7427
▁ondertekend	-10.7427
▁lood	-10.743
▁kaap	-10.7433
▁typisch	-10.7436
▁houten	-10.7437
▁daling	-10.7439
▁hoorde	-10.744
▁natie	-10.7443
krijg	-10.7452
▁eiste	-10.7457
1)	-10.7463
▁system	-10.7463
▁behoorden	-10.747
▁1850	-10.747
kampioenschappen	-10.7473
ël	-10.7477
▁positief	-10.7485
▁commissaris	-10.7491
doc	-10.7498
▁capaciteit	-10.7505
▁regeren	-10.7508
▁afscheid	-10.7509
▁categorie	-10.7515
▁ijslands	-10.7517
schild	-10.7522
▁gedrukt	-10.7529
▁stop	-10.753
▁aangegeven	-10.7536
▁maat	-10.7541
▁stapte	-10.7549
vraag	-10.7553
document	-10.7557
▁geleverd	-10.756
plas	-10.7562
gli	-10.7568
turks	-10.7574
▁eurovisie	-10.7576
▁bolkestein	-10.7576
▁empedocles	-10.7576
▁monteverdi	-10.7576
▁verkreeg	-10.7576
▁aangeboden	-10.7576
▁voortplanting	-10.7576
▁oorzaken	-10.7576
▁aardolie	-10.7576
▁indonesië	-10.7576
▁betrof	-10.7576
circuit	-10.7576
▁emotie	-10.7576
▁talloze	-10.7578
▁componisten	-10.7578
▁achterlijf	-10.758
▁voorstander	-10.758
▁1916	-10.7583
▁stadsdeel	-10.7583
▁orgel	-10.7583
seksuele	-10.7584
caesar	-10.7584
▁bevolkingsgroep	-10.7584
ouwen	-10.759
ène	-10.7591
▁voorafgaand	-10.7592
▁trachtte	-10.7593
bestand	-10.7595
▁vervolgd	-10.7595
▁1814	-10.7595
▁maya	-10.7597
anus	-10.7598
▁wonnen	-10.7599
▁arrondissement	-10.7606
zinnig	-10.7612
▁onderscheiding	-10.7617
▁werkgevers	-10.7625
▁compiler	-10.7626
▁stamt	-10.7638
▁brandstof	-10.7639
▁roem	-10.7642
iële	-10.7644
▁gedicht	-10.7645
▁geografische	-10.7653
▁geert	-10.7655
▁leidden	-10.7656
toekomstige	-10.7657
▁zestien	-10.766
▁klok	-10.7663
sluis	-10.7666
ilia	-10.767
▁koste	-10.7674
blok	-10.7674
▁vlieger	-10.7675
▁loon	-10.7678
▁bouwwerken	-10.7679
reis	-10.7679
▁verkiezing	-10.7684
▁verslag	-10.7689
dict	-10.7695
ianus	-10.7697
▁vallei	-10.7699
▁benoemde	-10.7708
▁psycho	-10.7708
▁far	-10.771
▁chemie	-10.7717
filosofie	-10.7719
bodem	-10.7719
▁breder	-10.7721
lieve	-10.773
afstand	-10.7734
▁beoefend	-10.7735
▁expansie	-10.7735
▁surinaams	-10.7735
▁uitgereikt	-10.7735
▁vulkanisch	-10.7735
installatie	-10.7735
▁gehanteerd	-10.7735
▁territoria	-10.7735
▁verbetering	-10.7735
▁verminderd	-10.7735
▁hardware	-10.7735
kuifje	-10.7735
▁mechanisch	-10.7735
▁vermeende	-10.7735
▁zomerspelen	-10.7735
▁jakob	-10.7735
▁london	-10.7735
▁normale	-10.7735
▁expressie	-10.7735
sdichtheid	-10.7735
▁drenthe	-10.7735
▁investering	-10.7735
overdracht	-10.7735
▁egyptische	-10.7735
▁aids	-10.7736
▁philips	-10.7736
▁getekend	-10.7736
▁tekens	-10.7737
moedig	-10.7738
▁gedeeld	-10.7739
▁davis	-10.774
▁reserve	-10.7742
▁vondsten	-10.7743
bevolkt	-10.7745
▁vasteland	-10.7746
▁hoover	-10.7746
▁jongste	-10.7747
▁herstellen	-10.775
kanker	-10.7755
▁hoofdrol	-10.7756
stond	-10.7757
▁hierover	-10.7759
▁100.000	-10.776
▁definitieve	-10.7761
burger	-10.7762
▁brits	-10.7762
ovi	-10.7769
gelezen	-10.7779
new	-10.778
▁duren	-10.7784
▁café	-10.7791
▁oproep	-10.7814
▁az	-10.7819
stations	-10.7821
▁kampen	-10.7824
▁gevoelig	-10.7825
▁vocht	-10.7828
▁ali	-10.7839
integr	-10.784
gronden	-10.784
▁reacties	-10.7842
▁regent	-10.786
▁gesteente	-10.7862
-14	-10.7863
bussen	-10.7863
rich	-10.7868
linie	-10.7871
▁beweerde	-10.7872
▁betrekkingen	-10.7872
drager	-10.7873
▁hei	-10.7877
vlaams	-10.7883
tussen	-10.7885
▁encyclopedie	-10.7896
consumptie	-10.7896
▁agglomeratie	-10.7896
▁algoritme	-10.7896
▁ethiopië	-10.7896
▁kathedralen	-10.7896
▁marijnissen	-10.7896
▁plaatsgevonden	-10.7896
▁spanjaarden	-10.7896
▁telefoon	-10.7896
▁beloofd	-10.7896
▁paleoceen	-10.7896
▁integratie	-10.7896
▁ideologie	-10.7896
carboon	-10.7896
▁diameter	-10.7896
▁bijeenkomst	-10.7896
▁magnetisch	-10.7896
▁demografie	-10.7896
▁oftewel	-10.7897
▁pijl	-10.7897
▁geluk	-10.7897
▁elektronisch	-10.7897
▁gelovigen	-10.7898
▁nationaliteit	-10.7898
iviteit	-10.7899
▁symbolisch	-10.7899
▁levensloop	-10.7899
▁hevig	-10.7899
▁expositie	-10.79
▁virus	-10.79
▁detail	-10.79
▁aanbod	-10.7901
▁openlijk	-10.7901
▁voortgezet	-10.7903
▁1925	-10.7905
▁vloot	-10.7905
▁allereerst	-10.7907
▁telken	-10.7908
▁eigendom	-10.7914
voeren	-10.7916
special	-10.7917
ao	-10.7919
▁poort	-10.7919
▁verwezen	-10.7922
▁reisde	-10.7928
▁raakten	-10.7929
▁gesteenten	-10.793
aï	-10.7932
wetten	-10.7932
una	-10.7938
▁bill	-10.7946
▁beslissing	-10.7947
▁afbeelding	-10.7947
▁overleg	-10.7951
present	-10.7952
▁mali	-10.7952
gelegenheden	-10.7956
▁aandelen	-10.7957
▁ringen	-10.7957
▁kaarten	-10.7967
lok	-10.7968
▁(6	-10.797
▁westelijk	-10.7972
▁zesde	-10.7975
▁belangrijker	-10.7985
▁emil	-10.7985
▁geheim	-10.7985
trouw	-10.799
▁landing	-10.7991
▁dominant	-10.7992
▁oostende	-10.7995
staten	-10.8001
princ	-10.8002
org	-10.8004
fractie	-10.8008
▁gedragen	-10.8017
▁genen	-10.8017
▁regeer	-10.8022
▁stemde	-10.8027
-15	-10.8028
steun	-10.803
▁zeus	-10.8033
▁taalgebied	-10.8036
▁stabiel	-10.8036
verkiezing	-10.8043
▁mannetje	-10.8046
vlinder	-10.8049
verklaring	-10.8049
orthodox	-10.8056
▁kandidaten	-10.8059
▁bedreiging	-10.806
▁expliciet	-10.806
▁geïnteresseerd	-10.806
▁multatuli	-10.806
▁slavernij	-10.806
▁verbinden	-10.806
▁verjaardag	-10.806
▁verlengd	-10.806
▁wolfgang	-10.806
▁herkennen	-10.806
▁tervuren	-10.806
▁spirituele	-10.806
▁michel	-10.806
mobiele	-10.8061
saksisch	-10.8062
▁aardgas	-10.8062
▁categorieën	-10.8062
▁meisjes	-10.8062
▁leuven	-10.8064
vrijheid	-10.8064
▁besmet	-10.8064
▁eindhoven	-10.8064
▁lukte	-10.8066
▁barok	-10.8067
▁gebruikgemaakt	-10.8068
▁vergelijken	-10.8069
ïsche	-10.8071
▁elite	-10.8071
▁bladeren	-10.8072
▁middelbare	-10.8073
▁relatieve	-10.8077
gordel	-10.8078
▁spring	-10.8079
▁onderverdeling	-10.8082
▁sim	-10.8085
▁logo	-10.8088
▁meervoud	-10.8091
ör	-10.8096
▁heelal	-10.8106
▁hieraan	-10.811
▁graden	-10.8117
▁noordwest	-10.8124
nsverduistering	-10.8128
ball	-10.8129
uni	-10.8131
▁kenmerk	-10.8136
▁federatie	-10.8139
▁scherm	-10.8139
▁rupsen	-10.814
ney	-10.8151
▁stedelijk	-10.8154
▁heb	-10.8164
▁ziekten	-10.8167
▁zwakke	-10.817
acteur	-10.8173
sprong	-10.8179
mark	-10.818
▁cao	-10.8183
▁mini	-10.8183
▁grandslam	-10.8183
▁tekort	-10.8201
▁protocol	-10.8204
talige	-10.8206
▁spoorwegen	-10.8207
vind	-10.8208
groot	-10.8209
▁toernooien	-10.8218
effect	-10.8218
stromen	-10.8219
reeks	-10.8219
genaamd	-10.8219
▁opgelegd	-10.822
▁taalkundig	-10.822
▁fouten	-10.8223
standaard	-10.8224
▁terror	-10.8224
russisch	-10.8225
misbruik	-10.8227
▁alliantie	-10.8227
▁autonomie	-10.8227
▁beschikking	-10.8227
▁differentiaal	-10.8227
▁genocide	-10.8227
▁kiezers	-10.8227
▁niemand	-10.8227
▁roosevelt	-10.8227
▁alcohol	-10.8227
▁coureur	-10.8227
▁verworven	-10.8227
▁decembermoorden	-10.8227
▁gezocht	-10.8227
▁toeristische	-10.8227
▁renners	-10.8227
▁hindoeïsme	-10.8227
kazerne	-10.8228
▁melkweg	-10.8228
natuur	-10.8228
hoff	-10.8229
▁import	-10.8229
▁popmuziek	-10.8229
▁angst	-10.8231
▁drank	-10.8231
▁wachten	-10.8233
▁brood	-10.8234
▁hugo	-10.8234
▁harry	-10.8236
▁hiertoe	-10.824
▁stadhouder	-10.8245
▁brouw	-10.8246
▁rik	-10.8249
▁gekend	-10.8249
▁brabantse	-10.825
ziekte	-10.825
▁piet	-10.8254
▁opslag	-10.8262
▁bloem	-10.8264
▁kerst	-10.8265
▁paulus	-10.8266
vorst	-10.8267
▁georges	-10.8269
▁lei	-10.827
kool	-10.8276
samen	-10.8277
▁master	-10.828
▁drukken	-10.8285
▁fred	-10.8288
mag	-10.8291
▁oosters	-10.8292
▁opvallende	-10.8293
▁prominente	-10.8299
▁stedelijke	-10.8299
▁voert	-10.8301
▁islamitisch	-10.8302
▁vruchtba	-10.8314
▁aanslag	-10.8318
▁raken	-10.8325
▁boor	-10.8325
▁abstract	-10.8328
ima	-10.8335
▁aangesteld	-10.8337
under	-10.834
=	-10.8341
ml	-10.8347
▁toename	-10.8355
▁gemeentelijk	-10.8363
▁geschied	-10.8372
▁verschilt	-10.8374
gelopen	-10.8374
streken	-10.8378
lé	-10.839
blijven	-10.8391
nederlandse	-10.8393
gger	-10.8393
gewerkt	-10.8394
officier	-10.8395
▁abraham	-10.8396
▁fenomeen	-10.8396
▁geïntegreerd	-10.8396
▁goedgekeurd	-10.8396
▁halverwege	-10.8396
▁hectare	-10.8396
▁justinianus	-10.8396
▁league	-10.8396
▁oneindig	-10.8396
▁schepping	-10.8396
vervuiling	-10.8396
▁douwes	-10.8396
▁obligatie	-10.8396
▁oekraïne	-10.8396
▁populatie	-10.8396
▁mannelijke	-10.8396
▁studeren	-10.8396
▁opgelost	-10.8396
▁voegde	-10.8396
▁mozes	-10.8397
liep	-10.8397
▁diplomatiek	-10.8397
▁complete	-10.8397
▁vrees	-10.8397
▁video	-10.8397
▁financiën	-10.8398
▁kartel	-10.8398
▁braille	-10.8398
▁vooruitgang	-10.8398
▁loopbaan	-10.84
▁nadien	-10.8401
▁onzeker	-10.8401
▁kantoor	-10.8401
▁42	-10.8402
▁hogeschool	-10.8402
▁zeespiegel	-10.8403
▁1911	-10.8407
▁acties	-10.8408
▁henry	-10.841
afrikaans	-10.841
gestemd	-10.8415
▁successen	-10.8415
▁huur	-10.8418
▁prinses	-10.8419
▁banken	-10.8419
ceau	-10.842
▁historie	-10.842
▁kijk	-10.8421
▁live	-10.8421
▁dichtheid	-10.8421
▁bits	-10.8423
▁eug	-10.8429
germaans	-10.8429
show	-10.8431
▁vroegste	-10.8435
flo	-10.8435
▁trekt	-10.8442
▁gevaarlijk	-10.8444
▁55	-10.8444
▁evenwicht	-10.8447
asser	-10.845
▁groeit	-10.8451
deutsch	-10.8452
▁geel	-10.8452
▁etc	-10.8454
doek	-10.8456
▁zitting	-10.8456
asso	-10.8464
▁vii	-10.8467
▁woestijn	-10.8468
▁voerden	-10.8469
voerder	-10.8469
blazen	-10.8471
▁woonden	-10.8476
▁stabiele	-10.8481
▁hiv	-10.8491
rry	-10.8495
munt	-10.8508
▁schaduw	-10.8512
▁gru	-10.8519
iran	-10.8522
gard	-10.8528
▁geallieerde	-10.8535
▁opgeslagen	-10.8538
reichs	-10.8539
▁licentie	-10.854
schrijven	-10.8555
software	-10.8555
wetenschapper	-10.8561
tentoonstelling	-10.8566
begrip	-10.8567
▁spirit	-10.8568
führer	-10.8569
muzikanten	-10.8569
▁beeldhouwer	-10.8569
▁bevorderen	-10.8569
▁kwalificatie	-10.8569
▁omschreven	-10.8569
▁temperaturen	-10.8569
▁verdieping	-10.8569
▁atelier	-10.8569
▁merendeel	-10.8569
science	-10.8569
▁gestegen	-10.857
ploeg	-10.857
▁biologische	-10.8571
▁verhoogd	-10.8572
▁valley	-10.8573
▁gerrit	-10.8573
bogen	-10.8578
▁adres	-10.858
▁behalen	-10.8582
stoel	-10.8583
▁gevangenis	-10.8586
▁kritische	-10.8586
prijzen	-10.8588
▁belastingen	-10.859
▁straten	-10.8592
vision	-10.8595
▁gehaald	-10.8597
▁vrouwtjes	-10.8597
oxide	-10.8598
▁1955	-10.8599
▁stroomgebied	-10.8602
aantal	-10.8605
▁melk	-10.8611
▁vluchtte	-10.8615
▁leu	-10.8618
glob	-10.8622
well	-10.8626
▁time	-10.8631
▁zwak	-10.8633
▁emu	-10.8637
▁aanduiding	-10.8639
▁point	-10.8646
ity	-10.8649
▁hoopte	-10.8653
▁singles	-10.8659
▁kabinetten	-10.866
▁khan	-10.8663
klassieke	-10.8664
▁rein	-10.8682
rijden	-10.8682
▁tellen	-10.8683
▁gotisch	-10.8687
▁donkere	-10.869
▁trof	-10.8701
▁onderscheidt	-10.8708
▁els	-10.8715
▁gebruiker	-10.872
actieve	-10.8726
machtig	-10.8731
shir	-10.8739
▁paste	-10.8743
balans	-10.8744
▁cafeïne	-10.8744
▁foundation	-10.8744
▁ingenieur	-10.8744
▁lichamen	-10.8744
▁portugal	-10.8744
▁sampras	-10.8744
▁clijsters	-10.8744
▁toegewezen	-10.8744
▁uitgangspunt	-10.8744
▁permeke	-10.8744
▁perzië	-10.8744
▁hergé	-10.8744
▁vestigen	-10.8744
▁apollo	-10.8744
▁caribisch	-10.8744
▁ottomaans	-10.8744
▁award	-10.8744
▁mekka	-10.8744
▁drugs	-10.8744
▁betekenen	-10.8745
▁bleken	-10.8745
▁diversiteit	-10.8745
afdeling	-10.8745
▁hertogdom	-10.8745
▁uitgesloten	-10.8746
ontvanger	-10.8746
▁kaapstad	-10.8746
▁atomen	-10.8746
socialistische	-10.8746
▁victor	-10.8746
▁doctor	-10.8747
▁ideologisch	-10.8747
▁luchtmacht	-10.875
incident	-10.875
▁1927	-10.875
vir	-10.875
▁enkelspel	-10.8753
▁respect	-10.8753
300	-10.8757
▁lake	-10.8758
▁realisme	-10.8758
▁geringe	-10.8761
second	-10.8763
▁wieler	-10.8764
▁beeldend	-10.8764
▁canon	-10.8766
▁bruin	-10.8769
7)	-10.8771
▁veer	-10.8774
▁greep	-10.8775
▁leeg	-10.8775
▁stelden	-10.8776
zaak	-10.8776
room	-10.8777
▁zond	-10.8778
▁afdelingen	-10.8783
▁nico	-10.8805
▁aziatische	-10.881
▁radicale	-10.8823
▁geacht	-10.8825
aert	-10.8828
▁geliefd	-10.883
▁plo	-10.8834
▁grenst	-10.8838
▁geologische	-10.885
ugh	-10.8853
▁hervormingen	-10.8854
▁textiel	-10.8858
wood	-10.8858
▁omloop	-10.8858
bronnen	-10.8866
▁onbekende	-10.8868
▁uitvoerende	-10.8871
▁muren	-10.8872
staatssecretaris	-10.8874
▁staal	-10.8875
dou	-10.8886
oeien	-10.8897
▁schattingen	-10.8901
vast	-10.8901
▁revolutionaire	-10.8907
▁laken	-10.8908
mach	-10.8915
▁oostelijk	-10.8916
▁francis	-10.892
▁american	-10.8923
▁gecreëerd	-10.8923
▁introductie	-10.8923
▁jefferson	-10.8923
▁kristal	-10.8923
▁overblijfsel	-10.8923
▁plotseling	-10.8923
▁vitamine	-10.8923
coördina	-10.8923
▁favoriet	-10.8923
▁unesco	-10.8923
▁philipp	-10.8923
▁wijzigen	-10.8923
▁ghana	-10.8923
▁naoorlogse	-10.8923
▁friesland	-10.8923
▁openbaring	-10.8923
▁vergroten	-10.8923
▁maxwell	-10.8923
▁elsschot	-10.8923
▁structuren	-10.8923
▁giftig	-10.8924
▁functioneren	-10.8924
gekocht	-10.8924
▁leeft	-10.8925
▁concurrentie	-10.8925
▁gewond	-10.8926
materiaal	-10.8927
▁liedjes	-10.8927
indeling	-10.8929
▁gepland	-10.8929
moeder	-10.893
▁schotland	-10.893
▁overleefd	-10.8932
▁mensenrechten	-10.8932
▁streken	-10.8933
▁persoonlijkheid	-10.8934
baai	-10.8937
▁verliep	-10.8938
▁3000	-10.8939
▁graad	-10.8939
hall	-10.894
▁france	-10.8942
▁1904	-10.8946
▁atp	-10.895
▁dak	-10.8954
nationalistische	-10.8954
▁000	-10.8954
vari	-10.8955
laan	-10.8955
gezind	-10.8961
▁bijbelse	-10.8961
brach	-10.8962
▁artistieke	-10.8965
▁tijdschriften	-10.8968
toernooien	-10.8972
▁permanente	-10.8977
▁makelaar	-10.898
tiële	-10.8982
▁lenin	-10.8985
▁salon	-10.8985
▁weet	-10.8996
▁hervorming	-10.9001
elementen	-10.9007
▁uiterste	-10.9013
▁toneelstuk	-10.9024
▁thor	-10.9035
▁cyclus	-10.9045
▁zacht	-10.9065
▁delta	-10.907
▁server	-10.9073
▁ijzeren	-10.9099
▁gebeurtenis	-10.9101
georiënteerd	-10.9104
theïstisch	-10.9104
▁afgeschaft	-10.9104
▁arabieren	-10.9104
▁bonaparte	-10.9104
▁neptunus	-10.9104
▁onvoldoende	-10.9104
▁pándy	-10.9104
▁republikein	-10.9104
▁werkgelegenheid	-10.9104
▁zwaartekracht	-10.9104
▁treedt	-10.9104
criteria	-10.9104
▁uitzonderlijk	-10.9104
▁versterken	-10.9105
▁klingon	-10.9105
▁kwijt	-10.9105
▁overeenstemming	-10.9105
gepakt	-10.9105
▁soera	-10.9105
▁beweegt	-10.9105
▁fysische	-10.9105
▁getrouwd	-10.9106
▁bondgenoten	-10.9106
▁oscar	-10.9106
▁eitjes	-10.9107
▁theodor	-10.9107
ïsme	-10.911
concert	-10.9112
theater	-10.9113
▁1913	-10.9113
▁moedertaal	-10.9114
▁taalgebruik	-10.9116
▁radon	-10.9117
tekst	-10.9122
▁omringend	-10.9126
lich	-10.9127
▁verschillend	-10.9127
▁rijst	-10.9131
▁cup	-10.9133
▁zekerheid	-10.9137
swijziging	-10.915
▁arp	-10.9154
▁stadhuis	-10.9161
▁mensheid	-10.9164
▁hing	-10.9167
▁woont	-10.9174
▁rh	-10.9178
lessen	-10.9183
arius	-10.9187
▁stoel	-10.9188
▁schel	-10.9189
▁voorwaarde	-10.919
▁sprekers	-10.9192
▁bouwwerk	-10.9193
moord	-10.9196
▁esa	-10.9208
▁portret	-10.9213
▁gui	-10.9215
feld	-10.9217
▁carol	-10.9221
▁aansluiting	-10.9221
▁lastig	-10.9221
▁700	-10.9232
▁kubi	-10.925
▁wereldkampioen	-10.9253
▁marien	-10.9256
▁flu	-10.9266
▁cra	-10.9266
bbel	-10.9271
max	-10.9288
federal	-10.9289
discriminatie	-10.929
reservaten	-10.929
rudolf	-10.929
▁gekoppeld	-10.929
▁habsburg	-10.929
▁krajicek	-10.929
▁pacelli	-10.929
▁reliëf	-10.929
▁sicilië	-10.929
▁thermodynamica	-10.929
▁toeschouwer	-10.929
begrepen	-10.929
▁verhoeven	-10.929
▁conventie	-10.929
▁herfst	-10.929
▁uiteenlopende	-10.929
▁luister	-10.929
▁beslaat	-10.9291
loper	-10.9291
▁gegroeid	-10.9291
▁lanceer	-10.9291
▁aardoppervlak	-10.9291
▁koepel	-10.9292
▁gogh	-10.9293
▁bewerkt	-10.9293
▁grondstoffen	-10.9294
▁vierkante	-10.9296
▁1915	-10.9298
▁breda	-10.93
▁martel	-10.93
psychologie	-10.9301
waarschijnlijk	-10.9301
▁pijn	-10.9309
verschil	-10.931
aanval	-10.931
▁motie	-10.9316
▁dinosauriër	-10.9328
▁aanstelling	-10.933
▁kleinste	-10.933
-35	-10.9331
▁koor	-10.9351
ón	-10.9351
▁marcel	-10.9352
▁klap	-10.9353
▁boeddhistisch	-10.9357
▁stadium	-10.9366
▁river	-10.9378
▁ever	-10.9386
▁noorse	-10.9391
▁aangebracht	-10.9424
▁individuen	-10.9445
technieken	-10.9445
▁bekken	-10.945
gaf	-10.9457
0)	-10.9458
zonder	-10.9467
raam	-10.9474
▁solo	-10.9476
dragen	-10.9478
▁kardinaal	-10.9478
biljetten	-10.9478
equivalent	-10.9478
▁barbizon	-10.9478
▁gearresteerd	-10.9478
▁harrison	-10.9478
▁inwonertal	-10.9478
▁reizigers	-10.9478
▁rietveld	-10.9478
▁scheidsrechter	-10.9478
▁willekeurig	-10.9478
▁magritte	-10.9478
▁strafschop	-10.9478
▁evangelische	-10.9478
▁lokaal	-10.9478
▁statistische	-10.9478
▁heersers	-10.9479
▁fictie	-10.9479
gestoken	-10.9479
▁zondvloed	-10.9479
▁atoomnummer	-10.9479
▁zuiderzee	-10.9479
middag	-10.948
▁beieren	-10.948
▁krijgs	-10.9481
–19	-10.9481
▁devoon	-10.9481
▁group	-10.9482
▁goedkope	-10.9483
▁kwaad	-10.9484
▁rené	-10.9484
▁1926	-10.9485
▁taalkunde	-10.9489
▁technologisch	-10.949
dubbel	-10.9492
vergadering	-10.9493
avond	-10.9493
▁sturen	-10.9494
▁partijleider	-10.9497
▁wales	-10.95
▁franz	-10.9503
▁afgenomen	-10.9505
spinnen	-10.9507
reactie	-10.9509
▁hoeft	-10.9509
handelaar	-10.9513
▁borg	-10.952
▁heerschappij	-10.9521
▁170	-10.9524
▁indiase	-10.9528
▁uitmaken	-10.9538
▁aangevallen	-10.9544
▁pand	-10.9545
▁gif	-10.9547
gracht	-10.9549
graad	-10.9552
beginsel	-10.9553
▁abstracte	-10.9555
▁thuisland	-10.9565
▁waalse	-10.9567
▁zestiende	-10.9568
lust	-10.957
▁600	-10.9572
▁tropische	-10.9574
▁voorbereid	-10.9576
communi	-10.9586
german	-10.959
vormig	-10.9603
▁vermelding	-10.9604
6)	-10.9608
▁beslissingen	-10.961
▁permanent	-10.9612
▁hoogst	-10.9617
▁breedte	-10.9653
▁lou	-10.9659
quet	-10.9669
▁agrarisch	-10.9671
▁centimeter	-10.9671
▁executie	-10.9671
▁ferdinand	-10.9671
▁gedomineerd	-10.9671
▁nucleair	-10.9671
▁primitieve	-10.9671
▁regulier	-10.9671
nagenoeg	-10.9671
▁toevoeging	-10.9671
▁mogendheden	-10.9671
▁achtereenvolgen	-10.9671
▁medewerkers	-10.9671
▁bevolkingsgroei	-10.9671
▁bedevaart	-10.9671
▁hielp	-10.9671
▁bezittingen	-10.9671
▁ronald	-10.9671
▁melodie	-10.9671
▁studio	-10.9671
▁kocht	-10.9671
▁ierland	-10.9671
▁toetsen	-10.9671
▁soortgelijk	-10.9672
▁hoort	-10.9672
▁trend	-10.9673
wolk	-10.9675
▁1908	-10.9675
▁schone	-10.9676
▁1901	-10.9678
bio	-10.9681
▁regeerde	-10.9683
toestand	-10.9684
▁walter	-10.9684
niettemin	-10.9684
▁trots	-10.9684
▁villa	-10.9685
▁tekeningen	-10.9686
▁toezicht	-10.9686
▁vaar	-10.9688
technologie	-10.9689
brussel	-10.9689
instellingen	-10.969
factor	-10.9691
▁verreden	-10.9692
gerekend	-10.9692
bloem	-10.9694
▁onderliggende	-10.9695
▁ontmoeting	-10.9697
▁spelling	-10.97
▁graan	-10.9705
▁verbrand	-10.9705
mysteri	-10.9707
▁commandant	-10.9707
▁grof	-10.9712
▁paard	-10.9718
▁slachtoffer	-10.9719
sprekende	-10.9737
mba	-10.9743
braak	-10.9744
verhaal	-10.9747
▁gebergten	-10.9748
scheiding	-10.9754
▁romantisch	-10.9758
▁verdelen	-10.9762
▁bereikbaar	-10.9766
liberaal	-10.978
▁uiterst	-10.9788
▁roy	-10.9792
kilo	-10.9794
▁wien	-10.9794
hai	-10.98
stoten	-10.9805
tech	-10.9809
▁beschadigd	-10.9809
▁aansluit	-10.981
rood	-10.9817
▁voorkomende	-10.982
▁hersen	-10.9832
▁organisme	-10.9833
▁aanneme	-10.9842
▁lind	-10.9845
winning	-10.9849
▁overheden	-10.9853
ologen	-10.9859
▁landelijk	-10.9862
▁toenemen	-10.9865
▁atletiek	-10.9867
▁budget	-10.9867
▁galilei	-10.9867
▁geassocieerd	-10.9867
▁ludwig	-10.9867
▁mesopotamië	-10.9867
▁nakomelingen	-10.9867
▁neutronen	-10.9867
▁ontwierp	-10.9867
▁psychisch	-10.9867
▁rosenmöller	-10.9867
▁secundair	-10.9867
▁tsjechisch	-10.9867
▁veroorzaken	-10.9867
▁claim	-10.9867
▁begraafplaats	-10.9867
▁codice	-10.9867
▁varieert	-10.9867
▁keltische	-10.9867
▁airport	-10.9867
▁opgedeeld	-10.9867
programmeur	-10.9867
▁leidse	-10.9867
▁ontleend	-10.9867
▁overtuiging	-10.9867
▁presenteerde	-10.9868
▁meetkunde	-10.9868
▁aandoening	-10.9868
▁escher	-10.9869
geleverd	-10.9869
▁perfect	-10.987
▁eeuwenlang	-10.9872
▁volksunie	-10.9874
▁isbn	-10.9876
▁partijbestuur	-10.9877
▁vertrokken	-10.9881
▁schets	-10.9881
▁beschuldigd	-10.9885
▁welzijn	-10.9887
▁kernel	-10.9888
gevangen	-10.9889
zuiver	-10.9889
▁lauren	-10.989
getallen	-10.9893
chemie	-10.9895
▁gooi	-10.9897
▁vrijdag	-10.9898
▁draad	-10.9902
▁eem	-10.9905
spreek	-10.9908
roll	-10.9908
▁doorbraak	-10.9914
▁hecht	-10.9915
▁20.000	-10.9918
▁divers	-10.9919
▁apart	-10.9922
▁afgekort	-10.9932
▁voorsprong	-10.9932
▁donker	-10.9932
osaurus	-10.9934
voorziening	-10.995
werkzaamheden	-10.9962
strook	-10.9967
▁mary	-10.9968
▁legden	-10.9972
▁tekende	-10.9974
▁hersenen	-10.9981
▁snelweg	-10.9982
schip	-10.9985
media	-10.9995
▁mur	-11.0017
rail	-11.004
▁begeleid	-11.0041
specialist	-11.0042
fysica	-11.0052
▁bevoegd	-11.0059
▁cura	-11.0062
extinctie	-11.0067
luftwaffe	-11.0067
regisseur	-11.0067
▁advocaat	-11.0067
▁afspraken	-11.0067
▁gepleegd	-11.0067
▁kapitaal	-11.0067
▁nijmegen	-11.0067
▁palestijnen	-11.0067
▁pleistoceen	-11.0067
▁progressieve	-11.0067
▁psychiatrisch	-11.0067
▁splitsing	-11.0067
▁surrealisme	-11.0067
▁tsjecho	-11.0067
▁venetië	-11.0067
▁verdedigd	-11.0067
▁assistent	-11.0067
▁goochel	-11.0067
▁hoessein	-11.0067
▁sfeer	-11.0067
▁stierven	-11.0067
▁toonaangevend	-11.0067
▁expressionist	-11.0067
▁stèle	-11.0067
▁database	-11.0067
▁plaatsvindt	-11.0067
▁vooraanstaande	-11.0067
▁legioen	-11.0067
▁gelderland	-11.0067
▁herziening	-11.0067
▁personage	-11.0067
▁dikwijls	-11.0067
▁externe	-11.0067
▁pesach	-11.0067
▁rotatie	-11.0067
▁volume	-11.0067
▁voegen	-11.0067
▁wetgevende	-11.0068
▁minimaal	-11.0068
epos	-11.0068
heffen	-11.0069
uitzending	-11.007
▁pvv	-11.0074
▁reformatie	-11.0074
▁weergave	-11.0075
▁besef	-11.0075
▁langst	-11.0075
▁dol	-11.0078
▁belast	-11.0079
kelder	-11.0081
▁eupen	-11.0085
▁schaars	-11.0085
▁general	-11.0086
itter	-11.0088
ueel	-11.009
▁minderheden	-11.0092
omgeving	-11.0093
christelijke	-11.0094
computer	-11.0094
▁1880	-11.0098
▁250	-11.0105
▁hop	-11.0111
geeft	-11.0112
jong	-11.0115
▁emi	-11.0124
▁(=	-11.0126
▁zingen	-11.0131
krant	-11.0143
mail	-11.0146
▁apen	-11.0163
▁standpunten	-11.0165
▁aspect	-11.017
gio	-11.0175
schakeling	-11.0192
pra	-11.0197
▁bang	-11.0231
▁dertien	-11.0232
nijverheid	-11.0234
▁contra	-11.0245
kov	-11.0252
eug	-11.0252
▁hyper	-11.0254
▁intrede	-11.0256
eraard	-11.0256
▁program	-11.0267
telescoop	-11.0271
▁ballingschap	-11.0271
▁benadrukt	-11.0271
▁bijbehorend	-11.0271
▁constitutione	-11.0271
▁herinnering	-11.0271
▁indirect	-11.0271
▁manhattan	-11.0271
▁pilatus	-11.0271
▁precieze	-11.0271
▁röhm	-11.0271
▁scandinavië	-11.0271
▁spaceshuttle	-11.0271
▁streefde	-11.0271
▁1906	-11.0271
▁pleegde	-11.0271
▁divisie	-11.0271
▁dorestad	-11.0271
▁syrië	-11.0271
▁6-4	-11.0271
▁overgedragen	-11.0271
▁gestart	-11.0271
▁prenten	-11.0271
▁stevig	-11.0271
▁breidde	-11.0271
▁europeanen	-11.0272
▁ambassadeur	-11.0273
▁fascistische	-11.0275
▁gekleurd	-11.0276
▁christian	-11.0277
▁meldde	-11.0277
▁praag	-11.0279
▁vandaar	-11.028
ject	-11.0284
▁lift	-11.0287
vriend	-11.029
▁bruna	-11.0292
▁straal	-11.0294
▁bewezen	-11.0296
▁achttiende	-11.0297
▁behield	-11.0298
pagina	-11.03
protocol	-11.0301
constructie	-11.0301
breuk	-11.0301
▁hindoe	-11.0302
beurs	-11.0304
winnaar	-11.0304
masker	-11.0305
ère	-11.0308
100	-11.0309
▁uitgewerkt	-11.0311
▁standbeeld	-11.0315
▁kara	-11.0316
▁eigenschap	-11.0319
▁nel	-11.032
datum	-11.0331
▁behoud	-11.0332
▁uitkomst	-11.0339
▁beslissende	-11.0339
▁vriendschap	-11.0339
▁romeins	-11.0342
▁eli	-11.0349
anna	-11.036
parti	-11.0384
kol	-11.0394
geleen	-11.0396
stone	-11.0403
▁ares	-11.0412
wak	-11.0429
▁elbe	-11.043
▁zorgden	-11.0449
rond	-11.0455
▁integraal	-11.0459
symbol	-11.0473
beschouw	-11.0477
gelovig	-11.0478
▁begroting	-11.0479
▁bernoulli	-11.0479
ontwikkelaar	-11.0479
▁alexios	-11.0479
▁begrijpen	-11.0479
▁cornelis	-11.0479
▁etymologie	-11.0479
▁gerealiseerd	-11.0479
▁interessant	-11.0479
▁twente	-11.0479
▁volgelingen	-11.0479
▁aangetoond	-11.0479
▁programmeren	-11.0479
▁zaterdag	-11.0479
▁archief	-11.0479
▁pantser	-11.0479
▁binaire	-11.0479
basiliek	-11.0479
▁binding	-11.0479
▁pruisisch	-11.0479
▁diamant	-11.0479
▁usenet	-11.0479
vloeien	-11.0479
▁ambitie	-11.0479
▁sperma	-11.0479
vordering	-11.048
kruid	-11.048
▁honger	-11.048
verhoging	-11.048
▁tablet	-11.048
▁bewustzijn	-11.048
▁melkert	-11.048
▁protestanten	-11.048
ambacht	-11.0481
▁gelre	-11.0481
▁romaans	-11.0482
wolf	-11.0482
▁voortzetting	-11.0483
alhoe	-11.0483
▁realistische	-11.0483
opbrengst	-11.0486
▁opmars	-11.0486
▁1931	-11.0487
▁jury	-11.0488
▁deelstaten	-11.0489
▁depressie	-11.0493
▁stoom	-11.0495
▁indianen	-11.0496
▁toegelaten	-11.0496
▁willy	-11.05
offer	-11.05
werkingsverband	-11.0501
kortweg	-11.0501
▁berust	-11.0502
▁1890	-11.0504
▁bevatte	-11.0508
licentie	-11.0514
balkenende	-11.0514
past	-11.0515
voorheen	-11.0518
bezit	-11.0529
▁lap	-11.0532
▁eet	-11.0536
▁opeenvolgend	-11.0536
gedrag	-11.0542
8)	-11.0554
▁palm	-11.057
▁satie	-11.058
▁nash	-11.0586
▁schiet	-11.0587
▁bewee	-11.0591
getal	-11.0614
guard	-11.0636
zegel	-11.064
orum	-11.0641
ridge	-11.0682
▁financi	-11.0688
hiërarchie	-11.0692
penicilline	-11.0692
▁bataafs	-11.0692
▁bioscoop	-11.0692
▁gelanceerd	-11.0692
▁giovanni	-11.0692
▁leipzig	-11.0692
▁propaganda	-11.0692
▁society	-11.0692
▁territorium	-11.0692
▁uitgestrekt	-11.0692
▁vernietigen	-11.0692
▁caïro	-11.0692
▁hobby	-11.0692
▁pelgrim	-11.0692
▁weimar	-11.0692
▁gepresenteerd	-11.0692
▁toorop	-11.0692
▁arthur	-11.0692
▁duivel	-11.0692
▁gebeuren	-11.0692
▁essay	-11.0692
▁verschijning	-11.0692
▁informatica	-11.0692
▁sluizen	-11.0692
▁grijpen	-11.0692
▁professor	-11.0692
▁draait	-11.0692
▁gereed	-11.0692
▁steenkool	-11.0693
▁begrensd	-11.0693
▁berekend	-11.0693
▁corruptie	-11.0693
▁afgewezen	-11.0694
▁ideale	-11.0694
▁plunder	-11.0695
▁beetje	-11.0696
▁mijnbouw	-11.0696
streep	-11.0699
▁huisvest	-11.0699
▁neef	-11.0702
char	-11.0703
▁bevriend	-11.0704
verre	-11.0707
▁proef	-11.0709
stream	-11.071
▁rijkdom	-11.071
▁takken	-11.0711
▁milaan	-11.0711
▁1886	-11.0713
▁presidentschap	-11.0715
omstandigheden	-11.0731
▁korst	-11.0732
moderne	-11.0732
lichaam	-11.0734
relatie	-11.0736
▁uitslag	-11.0742
binnen	-11.0743
bood	-11.075
▁ballet	-11.0753
▁aanpak	-11.0757
▁haat	-11.0763
▁aanvoer	-11.0772
▁keizerlijk	-11.0774
zand	-11.0779
▁parkeer	-11.0786
▁eigenaar	-11.0792
▁degelijk	-11.0794
▁interactie	-11.0805
mill	-11.0813
▁kenden	-11.0824
▁oceanië	-11.0826
▁geologie	-11.0829
itair	-11.0836
▁kenmerkt	-11.0846
▁cir	-11.0855
cultus	-11.0864
distributie	-11.0909
▁combineren	-11.0909
▁creëren	-11.0909
▁geïnterpreteerd	-11.0909
▁kroatië	-11.0909
▁michelangelo	-11.0909
▁perspectief	-11.0909
▁plagiaat	-11.0909
▁samengevoegd	-11.0909
▁verzwakt	-11.0909
▁zeldzaam	-11.0909
synthese	-11.0909
▁compleet	-11.0909
▁manuscript	-11.0909
verzekering	-11.0909
moleculen	-11.0909
▁smith	-11.0909
guinea	-11.0909
▁intensieve	-11.0909
▁gelijktijdig	-11.0909
▁innovatie	-11.0909
▁uitsterven	-11.0909
▁kwartfinale	-11.091
▁berekeningen	-11.091
▁monnik	-11.091
▁uitstekend	-11.091
▁verkopen	-11.091
▁groeperingen	-11.091
▁cpn	-11.091
▁gereden	-11.0912
burcht	-11.0913
▁vesting	-11.0913
▁uitgeverij	-11.0914
▁hoofdkwartier	-11.0914
▁hoofdletter	-11.0914
▁antwerpse	-11.0914
▁queen	-11.0917
▁waardering	-11.0918
▁doelstelling	-11.0919
▁tempo	-11.0923
▁organisch	-11.0923
▁bekendgemaakt	-11.0925
▁bronzen	-11.0926
▁1910	-11.093
gewassen	-11.0931
▁hoofdstuk	-11.0931
▁legt	-11.0935
stemming	-11.0936
dur	-11.0955
▁boord	-11.096
radio	-11.0964
overgang	-11.0968
vanaf	-11.0984
paard	-11.1008
▁krim	-11.1021
▁beslag	-11.1024
▁stopte	-11.1027
▁tasman	-11.1037
rock	-11.1045
▁smet	-11.1047
▁bob	-11.1048
▁inspiratie	-11.105
▁wijst	-11.1072
▁kim	-11.1075
rukken	-11.1078
▁verwantschap	-11.1081
▁geldig	-11.1082
▁omliggend	-11.1089
▁paleo	-11.1098
knop	-11.1104
▁administratie	-11.1126
▁span	-11.1128
apparatuur	-11.1131
▁geformuleerd	-11.1131
▁hemellichamen	-11.1131
▁lichamelijk	-11.1131
▁portugese	-11.1131
▁sleutel	-11.1131
▁teruggevonden	-11.1131
▁universele	-11.1131
▁verdreven	-11.1131
▁vermenigvuldig	-11.1131
▁karakteristiek	-11.1131
▁produceerde	-11.1131
▁promotie	-11.1131
▁ambtenaren	-11.1131
▁bamboe	-11.1131
▁regionaal	-11.1131
▁luidt	-11.1132
▁universitair	-11.1132
▁spijkerschrift	-11.1132
▁dwars	-11.1132
▁denkbeelden	-11.1132
▁consul	-11.1132
▁aarts	-11.1133
▁bepalingen	-11.1133
▁bernard	-11.1134
▁adellijke	-11.1135
▁balkan	-11.1136
pixel	-11.1136
▁thans	-11.1136
iana	-11.1138
▁gangbare	-11.1138
▁gewenst	-11.114
▁naakt	-11.114
▁theologische	-11.1141
verwerking	-11.1142
▁kunstmatig	-11.1144
pijp	-11.115
▁musici	-11.1151
▁poolse	-11.1152
▁prix	-11.1154
▁1884	-11.1155
▁1860	-11.1162
▁kali	-11.1163
▁kromme	-11.1163
zichtbare	-11.1164
▁landschappen	-11.1165
▁oostzee	-11.1165
▁petro	-11.1175
koel	-11.1178
bah	-11.1181
analyse	-11.1181
geslacht	-11.1181
▁eed	-11.1184
ontwerp	-11.1185
geloof	-11.1187
gebonden	-11.1195
▁spaar	-11.12
▁stukje	-11.1203
lopende	-11.1205
▁uitbreken	-11.1206
stadion	-11.1206
mantel	-11.1207
schelde	-11.1207
▁verstaan	-11.1207
▁thi	-11.1212
13)	-11.1213
▁1800	-11.122
▁gewoonte	-11.1232
goud	-11.1232
work	-11.124
▁christ	-11.1242
rill	-11.1249
getrouw	-11.1284
haar	-11.1306
storm	-11.1318
▁beschuldig	-11.1338
argon	-11.1348
▁fascist	-11.1354
evangeli	-11.1356
perzisch	-11.1358
▁relativiteits	-11.1359
psychiatrie	-11.1359
▁bulgarije	-11.1359
▁enzovoort	-11.1359
▁havelaar	-11.1359
▁maurits	-11.1359
▁ondergeschikt	-11.1359
▁schweitzer	-11.1359
▁uitgenodigd	-11.1359
▁vegetatie	-11.1359
▁bekritiseerd	-11.1359
▁laboratorium	-11.1359
▁opgemerkt	-11.1359
▁pensioen	-11.1359
▁vreemdelingen	-11.1359
▁wetsvoorstel	-11.1359
▁zuidpool	-11.1359
▁gebleken	-11.1359
▁bacteriën	-11.1359
▁ardennen	-11.1359
▁gedaald	-11.1359
church	-11.1359
▁strijdkrachten	-11.1359
▁drinken	-11.1359
▁gezorgd	-11.1359
▁inflatie	-11.1359
▁heersende	-11.1359
▁varkens	-11.1359
▁ondiep	-11.1359
bacteri	-11.1359
▁soevereiniteit	-11.136
▁nabijgelegen	-11.136
tamelijk	-11.1361
gewisseld	-11.1362
▁delft	-11.1362
▁overtuigen	-11.1363
▁veldtocht	-11.1363
▁engine	-11.1363
▁motieven	-11.1363
▁hamburg	-11.1364
▁vertoond	-11.1364
▁voortgekomen	-11.1364
▁hitte	-11.1364
bestrijding	-11.1365
▁hanze	-11.1366
▁vernieuwd	-11.1366
▁burgerij	-11.1366
▁ernest	-11.1367
gesproken	-11.137
geschoten	-11.137
▁eieren	-11.138
▁roger	-11.1383
▁uitgedrukt	-11.1389
▁mits	-11.1394
schaats	-11.1412
bekken	-11.1413
elektro	-11.1413
seizoen	-11.1414
▁wta	-11.1414
index	-11.1417
religie	-11.1421
formaat	-11.1421
▁kostte	-11.1423
revolutie	-11.1424
▁gebed	-11.1427
▁overgebracht	-11.1435
▁koud	-11.144
vallei	-11.145
lletje	-11.1452
▁daaraan	-11.1453
▁lor	-11.1457
making	-11.1459
high	-11.146
jarig	-11.1463
statist	-11.1478
▁wy	-11.1478
▁verlopen	-11.1486
▁rups	-11.1488
slavisch	-11.15
treinen	-11.1502
stam	-11.1513
▁gemeen	-11.1522
holt	-11.1558
▁seconde	-11.1561
▁gesprek	-11.1567
slav	-11.1574
gevecht	-11.1587
▁mercator	-11.159
boulevard	-11.1591
fysiologie	-11.1591
wetsherziening	-11.1591
▁academy	-11.1591
▁geaccepteerd	-11.1591
▁neurenberg	-11.1591
▁parmenides	-11.1591
▁pseudoniem	-11.1591
▁verklaart	-11.1591
▁university	-11.1591
▁alexandrië	-11.1591
▁reclame	-11.1591
▁meubel	-11.1591
▁dwingen	-11.1591
▁saksen	-11.1591
▁verouderd	-11.1591
▁dogma	-11.1591
interface	-11.1591
▁vikingen	-11.1591
▁berekenen	-11.1592
▁drastisch	-11.1592
▁6-3	-11.1592
▁eindigt	-11.1592
exodus	-11.1592
▁halfrond	-11.1592
▁geluidssnelheid	-11.1592
▁petrus	-11.1592
▁honderdduizend	-11.1593
▁classificatie	-11.1593
breekt	-11.1593
▁erosie	-11.1593
affaire	-11.1593
▁objectief	-11.1593
▁south	-11.1594
▁wereldranglijst	-11.1595
plooi	-11.1596
▁overzees	-11.1596
▁taalfamilie	-11.1598
▁strafrecht	-11.1599
▁protonen	-11.16
▁verscheidenheid	-11.1609
▁koppel	-11.1609
▁bruto	-11.1612
▁wolken	-11.1612
▁1879	-11.1614
▁contrast	-11.162
troepen	-11.1622
▁klassiek	-11.1645
field	-11.1648
lexi	-11.1653
klank	-11.1653
urban	-11.1654
bach	-11.1656
fiets	-11.1656
▁1600	-11.1657
▁wiskundig	-11.1667
▁bekeerd	-11.1668
▁kha	-11.1681
▁class	-11.1686
▁zweeds	-11.169
▁humanist	-11.17
▁aardewerk	-11.1705
melding	-11.1712
nota	-11.1727
▁standpunt	-11.1728
woning	-11.173
▁roos	-11.1751
product	-11.1766
▁machtige	-11.1784
peil	-11.1784
▁draag	-11.1798
blu	-11.1799
▁sumerisch	-11.1817
institut	-11.1825
european	-11.1829
therapie	-11.1829
pterygota	-11.1829
▁bestudeert	-11.1829
▁dictatuur	-11.1829
▁gestorven	-11.1829
▁holocaust	-11.1829
▁kolonisatie	-11.1829
▁organiseert	-11.1829
▁spoedig	-11.1829
▁srebrenica	-11.1829
▁vloeibare	-11.1829
verbruik	-11.1829
▁chinees	-11.1829
▁illegale	-11.1829
▁scheeps	-11.1829
▁1903	-11.1829
▁orakel	-11.1829
▁siluur	-11.1829
▁schoot	-11.1829
wording	-11.1829
▁onbewuste	-11.1829
reglement	-11.1829
▁dwong	-11.183
▁weduwe	-11.183
bepaling	-11.183
▁tezamen	-11.183
▁bemoei	-11.183
▁behoeve	-11.183
▁gletsjers	-11.183
▁binden	-11.1831
▁vergeten	-11.1831
▁javascript	-11.1831
▁hebreeuwse	-11.1831
▁illus	-11.1832
concord	-11.1832
▁beginselen	-11.1833
▁martinair	-11.1833
▁hervormd	-11.1833
▁baby	-11.1836
▁kalk	-11.1836
▁vervuld	-11.1838
▁bewoning	-11.1841
rhein	-11.1842
▁afgerond	-11.1844
▁toestellen	-11.1851
▁5000	-11.1851
▁1887	-11.1853
▁sumer	-11.1853
▁vinger	-11.1867
▁verplaatsen	-11.1874
rank	-11.1878
▁boete	-11.1879
▁dringen	-11.1882
eerbaar	-11.1892
overeenkomst	-11.1895
economisch	-11.1896
provincie	-11.1896
▁woede	-11.1897
stammen	-11.1907
ambt	-11.191
▁johanna	-11.1923
delta	-11.1929
still	-11.193
landschap	-11.1938
meenschappelijk	-11.1945
analytische	-11.1949
hey	-11.1965
▁maag	-11.1976
mund	-11.1989
▁warmer	-11.2016
▁vochtig	-11.2022
poel	-11.2024
brugse	-11.2042
▁ivan	-11.2049
tenzij	-11.205
component	-11.2071
offensief	-11.2073
▁aardkorst	-11.2073
▁attractie	-11.2073
▁beeldhouwkunst	-11.2073
▁beëindigd	-11.2073
▁blessure	-11.2073
▁flevoland	-11.2073
▁knooppunt	-11.2073
▁mechanica	-11.2073
▁scheikunde	-11.2073
▁spectaculair	-11.2073
▁synoniem	-11.2073
▁wederzijds	-11.2073
▁zeldzame	-11.2073
▁aangevuld	-11.2073
▁geregeerd	-11.2073
▁minuut	-11.2073
▁ontvangt	-11.2073
▁heineken	-11.2073
▁ontwikkelt	-11.2073
▁skelet	-11.2073
▁reuzen	-11.2073
▁schreven	-11.2073
▁beperken	-11.2073
▁claudi	-11.2073
▁kunstmest	-11.2073
▁imago	-11.2073
▁urbanus	-11.2073
forward	-11.2073
▁getoond	-11.2074
▁sanctie	-11.2074
▁uranus	-11.2074
▁traject	-11.2075
▁bombardementen	-11.2075
▁dienstplicht	-11.2076
▁geschilderd	-11.2078
▁kunstvorm	-11.2079
▁kuip	-11.2081
schatten	-11.2082
▁vlies	-11.2086
▁ondergrondse	-11.209
▁kustlijn	-11.2091
▁1795	-11.2092
▁gott	-11.2093
▁marcus	-11.2095
▁werkwoord	-11.2097
▁kozen	-11.2099
▁forum	-11.2104
▁ingewikkelde	-11.2107
▁wou	-11.2111
▁aftreden	-11.213
▁afloop	-11.2132
kolonie	-11.2146
orkest	-11.2146
bedrijven	-11.2146
winkel	-11.2147
hebben	-11.2147
gevolg	-11.2147
finale	-11.215
voetbal	-11.2155
kosten	-11.2157
breking	-11.2167
▁praktisch	-11.2184
▁dergelijk	-11.2184
half	-11.2188
▁bezetter	-11.219
table	-11.2194
▁rund	-11.2194
kast	-11.2197
▁wethouders	-11.2204
krans	-11.2209
▁fragment	-11.2211
geest	-11.2222
▁maagd	-11.2233
▁broed	-11.2243
▁minst	-11.2267
kkend	-11.2292
▁boekje	-11.2295
▁ethisch	-11.2302
▁rente	-11.2319
osauria	-11.2323
schouwburg	-11.2323
▁aangekondigd	-11.2323
▁association	-11.2323
▁australia	-11.2323
▁bidsprinkhaan	-11.2323
▁boeddha	-11.2323
▁controverse	-11.2323
▁democraten	-11.2323
▁enclave	-11.2323
▁eredivisie	-11.2323
▁federaal	-11.2323
▁gevangenisstraf	-11.2323
▁mondriaan	-11.2323
▁statuut	-11.2323
▁verminderen	-11.2323
variëteit	-11.2323
▁köln	-11.2323
▁vlamingen	-11.2323
▁autonome	-11.2323
▁bewogen	-11.2323
▁nijntje	-11.2323
▁cinema	-11.2323
▁naamgeving	-11.2323
▁onvrede	-11.2323
▁terreur	-11.2323
▁verdiende	-11.2323
▁verborgen	-11.2324
▁erkennen	-11.2324
▁wouters	-11.2324
▁bebop	-11.2324
▁golflengte	-11.2324
▁paaseiland	-11.2324
rationele	-11.2324
▁tevoren	-11.2325
▁geweten	-11.2325
▁genetica	-11.2326
▁evangelie	-11.2326
griff	-11.2327
▁gevuld	-11.2327
▁vrijzinnig	-11.2328
▁doornik	-11.2328
▁volwaardig	-11.2328
▁organen	-11.233
▁zwitserse	-11.2331
gevende	-11.2331
▁1909	-11.2331
▁drong	-11.2331
pionier	-11.2331
▁jules	-11.2333
▁meegenomen	-11.2334
▁portretten	-11.2337
▁uitgeschakeld	-11.2339
▁sky	-11.2339
▁middelpunt	-11.2341
▁venus	-11.2351
town	-11.2352
▁planck	-11.2352
▁samenwerken	-11.2354
meisje	-11.2356
▁1840	-11.2365
▁doelman	-11.2367
arium	-11.2369
trainer	-11.2376
▁predi	-11.2376
gilde	-11.2386
gedrukt	-11.2393
bewoners	-11.2402
situatie	-11.2402
koffie	-11.2402
meestal	-11.2403
element	-11.2404
studie	-11.2404
▁gezonde	-11.2412
ité	-11.2422
ière	-11.2427
▁1896	-11.243
▁noors	-11.2441
tennisser	-11.2449
▁dikke	-11.2453
▁insect	-11.2468
eisen	-11.2468
cola	-11.2474
bakken	-11.253
▁inhoudelijk	-11.2544
partijvoorzitter	-11.2547
opera	-11.255
▁gebeurd	-11.2569
koppeling	-11.2571
▁vernietiging	-11.258
sverwachting	-11.258
▁annexatie	-11.258
▁beatrix	-11.258
▁consensus	-11.258
▁consument	-11.258
▁evolutionair	-11.258
▁geprobeerd	-11.258
▁gerelateerd	-11.258
▁geïnstalleerd	-11.258
▁herakles	-11.258
▁illustratie	-11.258
▁millimeter	-11.258
▁omgevormd	-11.258
▁shuttle	-11.258
▁uitgeoefend	-11.258
▁vermijden	-11.258
▁veroordeling	-11.258
▁edward	-11.258
▁verwarring	-11.258
▁mountain	-11.258
alexandr	-11.258
▁plastic	-11.258
▁visserij	-11.258
▁opvolging	-11.258
▁plateau	-11.258
▁iraaks	-11.258
▁zijrivieren	-11.258
▁gewaardeerd	-11.258
▁hauer	-11.258
▁ontbrak	-11.258
▁geslaagd	-11.258
▁pakken	-11.258
▁mauric	-11.258
different	-11.258
misdaden	-11.258
▁webpagina	-11.258
▁munteenheid	-11.2581
▁migranten	-11.2581
▁levensbeschouw	-11.2581
▁swing	-11.2581
▁duurzame	-11.2581
▁nimf	-11.2581
decreet	-11.2581
▁phone	-11.2581
▁verlangen	-11.2581
▁libre	-11.2581
▁uiteenvallen	-11.2582
▁salaris	-11.2582
▁omringd	-11.2582
▁opmerking	-11.2583
risto	-11.2583
gesneden	-11.2584
▁wiki	-11.2584
▁elftal	-11.2585
▁breiden	-11.2585
▁oprichter	-11.2585
▁ceremoni	-11.2585
▁verlenen	-11.2586
▁canade	-11.2586
module	-11.2586
duidt	-11.2587
▁titan	-11.2588
▁kiesrecht	-11.2588
▁gedenk	-11.2589
▁opinie	-11.2591
sessie	-11.2593
▁gauw	-11.2594
▁potten	-11.2602
▁1898	-11.2605
gesprekken	-11.2606
▁botten	-11.2608
▁1888	-11.261
▁30%	-11.2614
▁schrik	-11.2614
▁1100	-11.2614
▁lading	-11.2619
▁mieren	-11.2635
▁rijnland	-11.2645
sloeg	-11.265
▁nova	-11.2653
schaduw	-11.2664
producent	-11.2665
record	-11.2665
vragen	-11.2665
militair	-11.2665
rapport	-11.2665
carrière	-11.2665
italië	-11.2666
keizer	-11.2666
kwaliteit	-11.2666
verband	-11.267
deeltjes	-11.2672
▁maxim	-11.2675
cyclus	-11.2679
poging	-11.2691
▁tasmanië	-11.2691
fix	-11.2692
polis	-11.2695
nood	-11.2707
springen	-11.2712
aardse	-11.2716
bocht	-11.273
slinger	-11.2754
nderen	-11.2783
▁pauselijk	-11.2793
▁achttien	-11.281
lith	-11.2811
▁herhaald	-11.2822
▁concurrent	-11.2839
▁conservatief	-11.2843
▁dixieland	-11.2843
▁eenduidig	-11.2843
▁fantasie	-11.2843
▁geweigerd	-11.2843
▁hoofdkantoor	-11.2843
▁overheersing	-11.2843
▁roofdieren	-11.2843
▁taliban	-11.2843
▁tsjechië	-11.2843
▁uruguay	-11.2843
▁verwijderen	-11.2843
▁vleermuizen	-11.2843
▁alvorens	-11.2843
▁bezighoudt	-11.2843
▁elektromagnet	-11.2843
▁stallman	-11.2843
▁verslechter	-11.2843
boycot	-11.2843
▁corporat	-11.2843
▁ingediend	-11.2843
▁soldaat	-11.2843
▁althans	-11.2843
subsidie	-11.2843
▁verfijn	-11.2843
▁opgevat	-11.2843
▁claus	-11.2843
▁decimale	-11.2843
▁gedateerd	-11.2843
▁jurist	-11.2844
▁north	-11.2844
bundes	-11.2845
▁liever	-11.2845
▁kalief	-11.2845
▁berucht	-11.2845
▁gevechten	-11.2845
▁echtgenoot	-11.2845
▁avant	-11.2846
▁rational	-11.2846
▁uniform	-11.2846
beurzen	-11.2847
▁afgevaardigd	-11.2847
▁folk	-11.2847
▁terrorisme	-11.2847
▁klassement	-11.2848
▁botsing	-11.2848
▁administratieve	-11.2849
▁westkust	-11.2849
▁maaltijd	-11.2849
▁spaarne	-11.2849
▁ordening	-11.285
▁tendens	-11.2852
▁spinsel	-11.2852
▁afgesproken	-11.2854
▁campus	-11.2856
▁én	-11.2857
▁driehoek	-11.2859
▁hegel	-11.286
▁raakt	-11.2861
▁tafeltennis	-11.2861
ouwer	-11.2866
▁naamwoord	-11.2869
▁hangen	-11.2875
▁1885	-11.2875
▁1813	-11.2876
▁1895	-11.2876
▁dames	-11.2877
arrest	-11.2879
▁knie	-11.288
▁kaak	-11.2882
▁eredienst	-11.2884
▁beweerd	-11.2885
▁wereldlijke	-11.2888
▁orbi	-11.2901
▁schuldig	-11.2901
▁psp	-11.2901
blanc	-11.2906
frankisch	-11.2917
experiment	-11.2935
mogelijkheden	-11.2935
twintig	-11.2935
buiten	-11.2937
gevoel	-11.2937
strip	-11.2942
processen	-11.295
variant	-11.2959
wall	-11.3005
▁congo	-11.3011
▁bush	-11.3015
gids	-11.3027
▁werkwijze	-11.3038
▁consequent	-11.3055
california	-11.3113
hertogenbosch	-11.3113
industrialisatie	-11.3113
▁astronomisch	-11.3113
▁bevorderd	-11.3113
▁carthago	-11.3113
▁confrontatie	-11.3113
▁exponent	-11.3113
▁joegoslavië	-11.3113
▁olympia	-11.3113
▁staatsschuld	-11.3113
▁stimuleren	-11.3113
▁uitoefenen	-11.3113
▁vulkaan	-11.3113
▁orleans	-11.3113
▁ruwweg	-11.3113
▁betaalmiddel	-11.3113
▁hierboven	-11.3113
arabië	-11.3113
▁opgewekt	-11.3113
▁pleitte	-11.3113
▁verschijnt	-11.3113
▁verheven	-11.3113
▁goedkeur	-11.3113
▁liefst	-11.3113
▁voertuig	-11.3113
▁gaandeweg	-11.3113
▁galerie	-11.3113
▁onenigheid	-11.3113
▁stichter	-11.3113
▁tijdvak	-11.3113
citroen	-11.3114
▁rogge	-11.3115
▁ondervond	-11.3115
▁nelson	-11.3115
▁gerechtelijk	-11.3115
▁heiligdom	-11.3115
▁sluit	-11.3115
▁grondwettelijk	-11.3116
▁vertrouwd	-11.3116
▁ouderdom	-11.3117
▁accent	-11.3117
▁stereo	-11.3119
▁stortte	-11.3119
▁dirk	-11.312
▁droom	-11.3128
▁mahal	-11.313
▁aangrenzend	-11.313
▁babylonische	-11.3132
▁2,5	-11.3133
▁40%	-11.3133
vatten	-11.3134
▁voorzieningen	-11.3135
▁collectief	-11.314
▁woonplaats	-11.3142
▁1894	-11.3142
▁ioc	-11.3147
▁who	-11.3151
6.000	-11.3157
hartig	-11.3167
eerste	-11.3169
▁piek	-11.3184
▁oplage	-11.3188
▁voorspeld	-11.3196
liberale	-11.3213
vlees	-11.3213
probleem	-11.3213
transport	-11.3214
lengte	-11.3215
zwart	-11.3215
vijf	-11.3216
▁adem	-11.3217
portret	-11.3219
sprei	-11.3219
▁call	-11.3226
schijn	-11.3239
gill	-11.3243
▁ferr	-11.3246
▁ontmoet	-11.3248
▁amerikaan	-11.3251
▁tropisch	-11.3251
▁fysiek	-11.3251
raketten	-11.3266
foto	-11.3269
▁oudsh	-11.327
individueel	-11.329
impressionisme	-11.3293
▁beslissen	-11.3298
▁vergader	-11.3306
▁socialist	-11.331
▁wint	-11.3336
bommen	-11.3379
▁overeenkomstig	-11.3384
▁origin	-11.3385
▁moeras	-11.3387
filosofisch	-11.3388
▁soeverein	-11.339
roemeens	-11.339
katholicisme	-11.3391
versnelling	-11.3391
▁afstammeling	-11.3391
▁braziliaans	-11.3391
▁colombia	-11.3391
▁compagnie	-11.3391
▁enthousiast	-11.3391
▁galileo	-11.3391
▁geregistreerd	-11.3391
▁kruisvaarders	-11.3391
▁laatstgenoemde	-11.3391
▁parallax	-11.3391
▁parcours	-11.3391
▁plioceen	-11.3391
▁produceert	-11.3391
▁pseudo	-11.3391
▁rivaliteit	-11.3391
▁homerus	-11.3391
▁halfgeleider	-11.3391
▁olifant	-11.3391
▁functionele	-11.3391
▁lancering	-11.3391
▁gezongen	-11.3391
▁versneld	-11.3391
▁ongebruikelijk	-11.3391
▁versterking	-11.3391
▁waarneemba	-11.3391
▁kosmisch	-11.3391
▁identiek	-11.3391
▁mengsel	-11.3391
▁verworpen	-11.3391
▁podium	-11.3391
▁vertellen	-11.3391
criticus	-11.3391
▁beheersen	-11.3391
▁voorkennis	-11.3391
▁japanners	-11.3391
▁bijgedragen	-11.3391
▁corona	-11.3391
▁demografische	-11.3391
▁geladen	-11.3391
▁beschouwt	-11.3392
▁regenwoud	-11.3392
▁onverwacht	-11.3392
▁behandelen	-11.3392
▁audio	-11.3392
▁voorspelling	-11.3392
▁engelstalige	-11.3393
▁diersoorten	-11.3393
▁restaurants	-11.3393
▁instituten	-11.3393
▁beleefde	-11.3393
▁afwezigheid	-11.3394
▁zenuw	-11.3395
▁compact	-11.3395
▁gevechts	-11.3395
▁volkspartij	-11.3397
▁volkstelling	-11.3398
▁6-2	-11.3399
▁bisschoppen	-11.3399
▁eiwitten	-11.3399
▁roepen	-11.3403
▁grondwater	-11.3408
▁zink	-11.3409
▁marco	-11.3414
gestalt	-11.3424
categorie	-11.3434
▁cool	-11.3452
ship	-11.3452
▁heidens	-11.3462
▁10%	-11.3465
ssecretarissen	-11.3492
afhankelijk	-11.3495
blauw	-11.3498
dynastie	-11.3499
bibliotheek	-11.3499
ongeveer	-11.3499
traditie	-11.35
uitgave	-11.3515
▁omgeven	-11.3528
▁single	-11.3529
▁socio	-11.3534
▁geografisch	-11.3537
▁bloeiend	-11.3565
motief	-11.357
▁poppe	-11.3592
▁cult	-11.3598
2.000	-11.3627
▁basket	-11.3635
▁jahan	-11.3641
▁hydro	-11.3666
▁shah	-11.3667
▁italia	-11.3672
▁aantrekkelijk	-11.3677
▁adviseur	-11.3677
▁benodigd	-11.3677
▁compromis	-11.3677
▁faciliteiten	-11.3677
▁geconcentreerd	-11.3677
▁gedetailleerd	-11.3677
▁implementatie	-11.3677
▁knoflook	-11.3677
▁mausoleum	-11.3677
▁misdaad	-11.3677
▁onjuist	-11.3677
▁ontvangst	-11.3677
▁openoffice	-11.3677
▁ordovicium	-11.3677
▁psellus	-11.3677
▁xenophanes	-11.3677
programmeertalen	-11.3677
▁autosnelweg	-11.3677
▁bescheiden	-11.3677
▁eduard	-11.3677
▁organisator	-11.3677
▁toevallig	-11.3677
▁volleybal	-11.3677
▁spectrum	-11.3677
▁language	-11.3677
gedraaid	-11.3677
▁ontstane	-11.3677
silicium	-11.3677
▁autoritair	-11.3677
▁betwist	-11.3677
▁mogol	-11.3677
▁verwerven	-11.3677
▁friezen	-11.3677
▁afghaans	-11.3677
▁gecontroleerd	-11.3677
▁evenredig	-11.3677
▁dwerg	-11.3677
▁nuttig	-11.3677
▁humor	-11.3677
▁kermis	-11.3677
▁micronesië	-11.3677
▁kempen	-11.3677
▁street	-11.3677
▁sedert	-11.3677
▁veeteelt	-11.3677
▁duurzaam	-11.3677
▁dialogen	-11.3677
▁psychologisch	-11.3677
▁plegen	-11.3678
▁gemalen	-11.3678
▁schutter	-11.3678
▁minimal	-11.3679
▁bloeiperiode	-11.3679
▁weekblad	-11.3679
▁voetbalclub	-11.368
▁aanvang	-11.368
▁essentieel	-11.368
▁afgezien	-11.368
▁vruchten	-11.3683
▁gelijkwaardig	-11.3683
▁bovenstaande	-11.3683
▁1907	-11.3684
▁muziekstijl	-11.3691
▁taalgrens	-11.3691
▁hertz	-11.3693
▁coach	-11.3694
blokken	-11.3705
▁treinstation	-11.3712
▁slaat	-11.3715
katholiek	-11.3725
▁begeleiding	-11.3745
▁jim	-11.3749
▁tekenaar	-11.3776
▁waals	-11.3788
instituut	-11.3793
principe	-11.3793
praktijk	-11.3793
paleis	-11.3793
platform	-11.3794
volledig	-11.3795
buurt	-11.3795
scherp	-11.3805
▁staatkundig	-11.3808
schoon	-11.3808
▁raket	-11.381
label	-11.3815
operatie	-11.3816
volgende	-11.3817
▁tang	-11.3819
▁bereik	-11.3858
▁gregor	-11.386
▁taalgroep	-11.3863
▁facto	-11.3867
zoeken	-11.3876
able	-11.3899
▁deutsche	-11.3924
laise	-11.3932
▁zeventien	-11.3935
hebreeuws	-11.3968
bombardement	-11.3969
ollywood	-11.3969
▁kwantum	-11.3971
chromosomen	-11.3971
chromosoom	-11.3971
getwijfeld	-11.3971
▁aartsbisschop	-11.3971
▁afsplitsing	-11.3971
▁avonturen	-11.3971
▁babbage	-11.3971
▁besproken	-11.3971
▁bourgondië	-11.3971
▁ethiopisch	-11.3971
▁euclides	-11.3971
▁horizontale	-11.3971
▁mineralen	-11.3971
▁ontsnappen	-11.3971
▁paraguay	-11.3971
▁provinciën	-11.3971
▁schmidt	-11.3971
▁universum	-11.3971
▁virtuele	-11.3971
feodale	-11.3971
▁aangemerkt	-11.3971
▁cyrillisch	-11.3971
▁recursie	-11.3971
▁brigade	-11.3971
▁geschoven	-11.3971
▁gestopt	-11.3971
▁sultan	-11.3971
▁zwaartepunt	-11.3971
ropoda	-11.3971
druppel	-11.3971
▁vakantie	-11.3971
▁chartres	-11.3971
▁erfenis	-11.3971
▁geteeld	-11.3971
▁verdienen	-11.3971
▁uitvinder	-11.3971
▁vervelling	-11.3971
▁hypertekst	-11.3971
▁thermisch	-11.3971
▁verbeelding	-11.3971
▁valuta	-11.3971
▁vazal	-11.3971
▁gunste	-11.3971
▁aanraking	-11.3971
▁reinhard	-11.3971
▁brahma	-11.3971
▁krijgsmacht	-11.3972
▁ultra	-11.3972
▁ocean	-11.3972
▁delphi	-11.3972
▁vries	-11.3973
▁geboortecijfer	-11.3973
▁noordzeekanaal	-11.3973
▁documentaire	-11.3974
▁volkslied	-11.3974
▁maximum	-11.3974
▁bestemd	-11.3976
maatregel	-11.3976
▁effectieve	-11.3976
▁wereldbevolking	-11.3976
▁zwang	-11.3976
▁verbouwd	-11.3977
▁monumentale	-11.3977
seksueel	-11.3978
▁planning	-11.3979
▁deventer	-11.3979
▁gebruikmaken	-11.3979
▁koraal	-11.3979
▁wettig	-11.398
▁ongekend	-11.398
▁50%	-11.3981
eocene	-11.3982
▁publiceren	-11.3983
▁toedoen	-11.3987
ministr	-11.3987
▁chaos	-11.3989
▁kamerleden	-11.399
▁east	-11.399
▁dunne	-11.399
▁bruno	-11.3992
▁schacht	-11.3993
spieren	-11.3993
▁nederduits	-11.3999
▁1839	-11.4008
▁noodzaak	-11.4009
▁schapen	-11.4014
▁scala	-11.4022
▁holi	-11.4066
bevolking	-11.4074
▁veldslag	-11.4085
vroeg	-11.4095
directeur	-11.4096
belasting	-11.4096
html	-11.4096
wortel	-11.4096
album	-11.4096
culturele	-11.4096
gewone	-11.4106
▁liga	-11.4116
04)	-11.4168
helena	-11.421
▁seks	-11.426
ermee	-11.4262
▁vertelt	-11.4274
▁bezuinig	-11.4274
▁absoluut	-11.4274
▁archeologen	-11.4274
▁authentiek	-11.4274
▁chicago	-11.4274
▁commentaar	-11.4274
▁diogenes	-11.4274
▁empirisch	-11.4274
▁exemplaar	-11.4274
▁feynman	-11.4274
▁gewelddadige	-11.4274
▁kaukasus	-11.4274
▁luitenant	-11.4274
▁machthebber	-11.4274
▁marokko	-11.4274
▁mesozoïcum	-11.4274
▁onvermijdelijk	-11.4274
▁patriarch	-11.4274
▁plezier	-11.4274
▁promoveerde	-11.4274
▁radicaal	-11.4274
▁sassaniden	-11.4274
▁verdrongen	-11.4274
▁virginia	-11.4274
doctrine	-11.4274
▁buitengewoon	-11.4274
▁postuum	-11.4274
▁relevant	-11.4274
▁doodstraf	-11.4274
▁naburig	-11.4274
▁vervullen	-11.4274
▁champions	-11.4274
▁behoorlijk	-11.4274
▁darwin	-11.4274
▁gedachtegoed	-11.4274
▁tektonisch	-11.4274
▁bestempeld	-11.4274
▁subtropisch	-11.4274
barrière	-11.4274
▁dusdanig	-11.4274
▁zintuigen	-11.4274
▁white	-11.4274
management	-11.4274
▁opdrachtgever	-11.4274
▁tevreden	-11.4274
▁getiteld	-11.4274
▁eén	-11.4274
▁sierra	-11.4274
▁1.0	-11.4274
▁major	-11.4274
▁welvarend	-11.4274
▁oplossen	-11.4274
▁stoffelijk	-11.4274
▁betrouwbaar	-11.4274
▁meegeren	-11.4274
▁realiseren	-11.4275
▁bewaren	-11.4275
▁typerend	-11.4275
▁redactie	-11.4275
▁overeenkomt	-11.4275
▁omvangrijke	-11.4275
▁kapitalisme	-11.4276
▁onderhandelen	-11.4276
▁bestrijden	-11.4276
▁wilhelmina	-11.4276
▁intelligentie	-11.4276
▁officieren	-11.4277
▁stadsbestuur	-11.4278
struik	-11.4279
▁sparta	-11.4279
▁kurt	-11.4279
▁tweetalig	-11.4279
▁zwemmen	-11.428
▁gevangenschap	-11.4283
▁apartheid	-11.4283
▁zenders	-11.4283
▁beginjaren	-11.4284
▁familieleden	-11.4284
▁continentaal	-11.4284
▁ibm	-11.4285
▁black	-11.4285
▁voorzitterschap	-11.4291
▁great	-11.4291
▁waterschappen	-11.4292
rechterlijke	-11.4292
down	-11.4297
▁daniel	-11.4297
▁herhaaldelijk	-11.4298
▁ontkend	-11.4309
▁joost	-11.4328
▁nieuwsgroep	-11.4354
▁marxistisch	-11.4359
voogd	-11.4384
dronk	-11.4397
parlementair	-11.4408
public	-11.4408
camera	-11.4408
kathedraal	-11.4408
onafhankelijke	-11.4409
amsterdam	-11.4409
gemiddelde	-11.4409
stichting	-11.4411
martin	-11.4421
▁hill	-11.4425
▁filip	-11.4438
▁plaatje	-11.4447
▁prominent	-11.4452
▁classic	-11.4458
count	-11.4505
head	-11.4553
▁garnizoen	-11.4586
configuratie	-11.4586
enthalpie	-11.4586
leverancier	-11.4586
liefhebber	-11.4586
▁anglicaans	-11.4586
▁benelux	-11.4586
▁beschikbare	-11.4586
▁cambridge	-11.4586
▁christiaan	-11.4586
▁communiceren	-11.4586
▁emigratie	-11.4586
▁guillaume	-11.4586
▁hammurabi	-11.4586
▁heyerdahl	-11.4586
▁hongersnood	-11.4586
▁inspireren	-11.4586
▁jiujitsu	-11.4586
▁licinius	-11.4586
▁moleculaire	-11.4586
▁mumbai	-11.4586
▁neutraal	-11.4586
▁progressief	-11.4586
▁pythagoreeër	-11.4586
▁uitgevonden	-11.4586
▁wapenstilstand	-11.4586
columbia	-11.4586
▁minimum	-11.4586
▁bondsrepubliek	-11.4586
staatshervorming	-11.4586
▁ajax	-11.4586
▁evangeliën	-11.4586
▁decoratie	-11.4586
▁verwierp	-11.4586
▁herdacht	-11.4586
▁1902	-11.4586
▁vincent	-11.4586
boerderij	-11.4586
▁ontdekken	-11.4586
gravure	-11.4586
▁ontbonden	-11.4586
▁bolivia	-11.4586
▁stekel	-11.4586
snijden	-11.4587
materiële	-11.4587
▁belofte	-11.4587
▁behandelt	-11.4587
buizen	-11.4587
▁herkenbaar	-11.4587
▁overstromingen	-11.4587
▁asiel	-11.4587
▁finish	-11.4587
▁verdubbeld	-11.4588
hispani	-11.4588
▁strekt	-11.4588
▁regeringsleider	-11.4588
▁hollywood	-11.4588
▁letterkunde	-11.4589
▁componenten	-11.4589
tijnse	-11.4589
▁pronk	-11.4589
▁veelgebruikt	-11.459
▁hubert	-11.459
▁levensstijl	-11.459
▁cbs	-11.4591
▁gelijkenis	-11.4591
encyclop	-11.4593
▁eurozone	-11.4594
▁wetboek	-11.4596
▁nationalisme	-11.4596
▁antieke	-11.4598
▁geboorteplaats	-11.4608
▁hits	-11.4616
ranglijst	-11.4628
aanvaller	-11.4634
▁hoefde	-11.4652
▁elea	-11.4656
schreef	-11.472
capaciteit	-11.473
procedure	-11.4731
symbool	-11.4731
combinatie	-11.4731
international	-11.4732
▁akkadisch	-11.4746
liefde	-11.4857
ative	-11.4857
▁place	-11.4877
▁servisch	-11.4887
▁christendemocra	-11.4891
▁elementair	-11.4899
▁eiwit	-11.4901
restaurant	-11.4906
akropolis	-11.4909
applicatie	-11.4909
assyrische	-11.4909
gouvernement	-11.4909
manipulatie	-11.4909
▁amfibieën	-11.4909
▁arriveerde	-11.4909
▁australische	-11.4909
▁begrafenis	-11.4909
▁drinkwater	-11.4909
▁elizabeth	-11.4909
▁fauvisme	-11.4909
▁geconfronteerd	-11.4909
▁gondwana	-11.4909
▁joséphine	-11.4909
▁mccartney	-11.4909
▁ochtend	-11.4909
▁overwicht	-11.4909
▁portugezen	-11.4909
▁prestigieu	-11.4909
▁protestantisme	-11.4909
▁slovenië	-11.4909
▁surrealistisch	-11.4909
▁trebizonde	-11.4909
▁versailles	-11.4909
▁vicepremier	-11.4909
▁vicepresident	-11.4909
▁vulkanen	-11.4909
▁wekelijks	-11.4909
opwekking	-11.4909
specificatie	-11.4909
▁nevada	-11.4909
▁ockels	-11.4909
▁ongewenst	-11.4909
▁sigmund	-11.4909
▁cheops	-11.4909
▁benoemen	-11.4909
▁verwarren	-11.4909
vergunning	-11.4909
▁shiva	-11.4909
▁vrijlating	-11.4909
▁reggae	-11.4909
▁monaco	-11.4909
▁uitgegroeid	-11.4909
imperial	-11.4909
▁gestapo	-11.4909
▁tactiek	-11.4909
▁galactisch	-11.4909
▁medina	-11.4909
▁gevarieerd	-11.4909
▁swap	-11.4909
▁mondeling	-11.4909
▁psychotherapie	-11.4909
▁dutchbat	-11.4909
▁thales	-11.4909
▁nalatenschap	-11.4909
▁schonk	-11.4909
▁verticale	-11.4909
verordening	-11.4909
▁verwees	-11.4909
▁beoogde	-11.491
beheersing	-11.491
▁kapelle	-11.491
segment	-11.491
▁scheiden	-11.491
▁gewapende	-11.491
▁8.1	-11.4911
▁origineel	-11.4911
▁verhandeling	-11.4911
▁classicisme	-11.4912
▁bediend	-11.4912
▁kruiden	-11.4912
▁hernieuwd	-11.4913
▁gevoelens	-11.4913
▁daarbuiten	-11.4913
▁gigantisch	-11.4914
▁onderdrukt	-11.4914
▁kamerfractie	-11.4914
▁atlas	-11.4914
▁penning	-11.4915
▁machinetaal	-11.4916
▁80%	-11.4917
▁owen	-11.4918
▁bitter	-11.4919
▁controleren	-11.4921
▁frits	-11.4924
▁opleverde	-11.4927
jimmy	-11.4927
▁90%	-11.4928
▁20%	-11.4931
kirche	-11.4932
krater	-11.4943
expert	-11.4956
▁shell	-11.497
physi	-11.4971
goddelijk	-11.4989
▁optrad	-11.4992
collectie	-11.4997
▁steppe	-11.5029
▁frei	-11.5038
voorwaarden	-11.5064
gedwongen	-11.5064
object	-11.5064
communicatie	-11.5065
europees	-11.5065
comité	-11.5065
louis	-11.5065
sinds	-11.5066
gespeeld	-11.5067
sporen	-11.5067
arabisch	-11.5069
▁dominee	-11.5094
▁protestants	-11.5103
collectieve	-11.5103
▁geologisch	-11.5104
gebroeders	-11.5202
▁doppler	-11.5242
coöperatie	-11.5242
problematiek	-11.5242
▁aanklacht	-11.5242
▁afschaffing	-11.5242
▁aluminium	-11.5242
▁benadrukken	-11.5242
▁calvinisme	-11.5242
▁cambrium	-11.5242
▁creëerde	-11.5242
▁fernand	-11.5242
▁gestimuleerd	-11.5242
▁omwenteling	-11.5242
▁problematisch	-11.5242
▁schimmels	-11.5242
▁supporters	-11.5242
▁zorgvuldig	-11.5242
▁verbreid	-11.5242
▁ziekenhuizen	-11.5242
▁zwavel	-11.5242
▁gesloopt	-11.5242
▁specialisatie	-11.5242
▁toetreding	-11.5242
▁verbannen	-11.5242
▁source	-11.5242
▁knvb	-11.5242
▁superieur	-11.5242
▁claude	-11.5242
▁ebla	-11.5242
▁vietnam	-11.5242
▁zuidwestelijk	-11.5242
▁dopplereffect	-11.5242
▁maximianus	-11.5242
▁abortus	-11.5242
▁lennon	-11.5243
▁eiffeltoren	-11.5243
▁koningsdag	-11.5243
▁kalksteen	-11.5243
▁estland	-11.5243
scènes	-11.5243
▁jorn	-11.5243
▁vissers	-11.5243
▁bbp	-11.5244
▁daalt	-11.5245
▁maximale	-11.5245
▁opleveren	-11.5246
▁schoen	-11.5246
▁grachten	-11.5246
▁italianen	-11.5246
▁abvv	-11.5246
geworpen	-11.5246
▁restanten	-11.5248
waffen	-11.5248
▁stadsrechten	-11.5249
▁genieten	-11.5249
▁design	-11.525
▁leefbaar	-11.525
▁xiv	-11.5251
▁formuleerde	-11.5251
informele	-11.5252
▁geschil	-11.5254
▁afkeer	-11.5254
slepen	-11.5256
▁dieptepunt	-11.5257
bezoek	-11.5262
▁bull	-11.5276
rtiende	-11.5282
▁kalm	-11.5293
▁weergeven	-11.5297
▁slaap	-11.5304
galerij	-11.5364
life	-11.5368
96)	-11.5397
kwestie	-11.5409
lidstaten	-11.541
overwinning	-11.5413
8.000	-11.5418
tafel	-11.5445
▁ijskap	-11.5491
▁domineerde	-11.5512
music	-11.5527
groeve	-11.5537
▁zwitser	-11.5573
▁théo	-11.5583
voorvoegsel	-11.5587
▁associatie	-11.5587
▁bekroond	-11.5587
▁betrekkelijk	-11.5587
▁bevelhebber	-11.5587
▁bezwaren	-11.5587
▁civilis	-11.5587
▁gecomponeerd	-11.5587
▁gemenebest	-11.5587
▁geëxecuteerd	-11.5587
▁hilversum	-11.5587
▁inwoneraantal	-11.5587
▁kooldioxide	-11.5587
▁metropool	-11.5587
▁moldavië	-11.5587
▁omgedoopt	-11.5587
▁portefeuille	-11.5587
▁representatie	-11.5587
▁rijkskanselier	-11.5587
▁schröder	-11.5587
▁steinbeck	-11.5587
▁streeft	-11.5587
▁teotihuacan	-11.5587
▁theropoden	-11.5587
▁verschoof	-11.5587
▁verzocht	-11.5587
▁vloeibaar	-11.5587
▁wederopbouw	-11.5587
▁wereldberoemd	-11.5587
▁willcox	-11.5587
▁concrete	-11.5587
▁dialoog	-11.5587
▁edelgas	-11.5587
▁geholpen	-11.5587
▁referentie	-11.5587
▁stijgt	-11.5587
▁voorspoed	-11.5587
▁dedekind	-11.5587
▁raymond	-11.5587
▁grammy	-11.5587
▁litouwen	-11.5587
▁ijzererts	-11.5587
▁afmetingen	-11.5587
▁gestaag	-11.5587
▁prehistorie	-11.5587
▁tilburg	-11.5587
▁moskeeën	-11.5587
▁treffen	-11.5587
▁atleten	-11.5587
▁peilingen	-11.5587
▁serieuze	-11.5587
▁provinciaal	-11.5587
▁onderworpen	-11.5587
▁klachten	-11.5587
▁venetiaan	-11.5587
▁toelating	-11.5587
▁tegenhanger	-11.5587
▁voorspellen	-11.5587
▁farao	-11.5588
▁gewervelde	-11.5588
▁atoomkern	-11.5588
▁senator	-11.5588
▁nederrijn	-11.5589
▁afwijking	-11.5589
activist	-11.5589
▁ogenblik	-11.5589
▁passages	-11.559
▁roemenen	-11.559
▁geschapen	-11.559
▁effectief	-11.5591
▁teresa	-11.5591
▁brandweer	-11.5591
▁heroverd	-11.5592
▁slavenhandel	-11.5592
–16	-11.5592
▁moerassen	-11.5592
▁nepal	-11.5592
▁gallië	-11.5595
▁reikt	-11.5595
▁klinisch	-11.5596
▁passeren	-11.56
passage	-11.5605
grijze	-11.5606
▁1,2	-11.5618
gigant	-11.5628
worm	-11.5694
▁trivia	-11.5749
▁hypothe	-11.5755
heuvel	-11.5766
conflict	-11.5766
gestuurd	-11.5766
burgemeester	-11.5767
antwerpen	-11.5767
belgië	-11.5767
locatie	-11.5768
reizen	-11.5768
▁revolutionair	-11.5774
sverduisteringen	-11.5796
▁zoogdier	-11.5824
onym	-11.5826
▁aanwijzing	-11.5831
▁stengel	-11.59
breng	-11.5918
▁monarch	-11.5941
kwantummechanica	-11.5944
sturingssystemen	-11.5944
▁anatolië	-11.5944
▁bagdad	-11.5944
▁beeldhouwwerk	-11.5944
▁beëindigen	-11.5944
▁correspondentie	-11.5944
▁cyprus	-11.5944
▁dinsdag	-11.5944
▁esthetische	-11.5944
▁florence	-11.5944
▁fungeert	-11.5944
▁gekroond	-11.5944
▁interbellum	-11.5944
▁jezuïeten	-11.5944
▁kennedy	-11.5944
▁langzamerhand	-11.5944
▁moeizaam	-11.5944
▁opzettelijk	-11.5944
▁pamflet	-11.5944
▁première	-11.5944
▁professional	-11.5944
▁research	-11.5944
▁residentie	-11.5944
▁rousseau	-11.5944
▁variabelen	-11.5944
▁vladimir	-11.5944
▁wisselkoers	-11.5944
ophyta	-11.5944
smokkel	-11.5944
▁creatieve	-11.5944
▁filipijnen	-11.5944
▁lithosfeer	-11.5944
▁oefenen	-11.5944
▁presocrat	-11.5944
▁salzburg	-11.5944
▁sympathie	-11.5944
▁jackson	-11.5944
▁jamaica	-11.5944
▁leeuwenhoek	-11.5944
▁onderdrukking	-11.5944
▁vermengd	-11.5944
▁opwarming	-11.5944
▁toenadering	-11.5944
awiil	-11.5944
▁vervanging	-11.5944
▁bepleit	-11.5944
▁erasmus	-11.5944
▁jordan	-11.5944
▁institution	-11.5944
▁bataven	-11.5944
▁1842	-11.5944
▁componeerde	-11.5944
▁nikola	-11.5944
▁interventie	-11.5944
▁brown	-11.5944
▁verbleven	-11.5944
▁bloemfontein	-11.5944
▁ondersteunt	-11.5944
▁heftig	-11.5944
▁aanmerking	-11.5944
▁tijdstip	-11.5944
▁noemer	-11.5944
▁hadith	-11.5945
▁goethe	-11.5945
▁iconen	-11.5945
▁amnestiewet	-11.5945
▁aandringen	-11.5945
▁beierse	-11.5945
kolonel	-11.5945
▁tsaar	-11.5945
▁debuteerde	-11.5945
▁stamboom	-11.5945
▁inscriptie	-11.5946
▁cyrus	-11.5946
▁woestijnvis	-11.5946
▁predikant	-11.5946
▁daniël	-11.5946
▁overheerst	-11.5946
▁herleid	-11.5947
▁kleinzoon	-11.5947
▁levenswijze	-11.5947
▁rugby	-11.5947
gekookt	-11.5949
▁maskers	-11.5949
▁overweging	-11.5952
vergoeding	-11.5973
▁tramlijn	-11.5979
essor	-11.5985
andries	-11.5997
▁inspiratiebron	-11.6077
▁edgar	-11.6116
▁zeeuws	-11.6124
sprekers	-11.6136
federatie	-11.6136
elektrisch	-11.6137
piramide	-11.6137
babylon	-11.6137
kalender	-11.6137
atlantische	-11.6138
uyt	-11.6223
richtlijn	-11.6257
▁ondernemers	-11.6277
55)	-11.628
participatie	-11.6314
▁accepteren	-11.6314
▁admiraal	-11.6314
▁anoniem	-11.6314
▁anthony	-11.6314
▁biodiversiteit	-11.6314
▁bokkenrijders	-11.6314
▁concludeerde	-11.6314
▁geofictie	-11.6314
▁gerangschikt	-11.6314
▁geschonken	-11.6314
▁honorius	-11.6314
▁informateur	-11.6314
▁koninginnedag	-11.6314
▁kroonprins	-11.6314
▁libanon	-11.6314
▁ontevreden	-11.6314
▁pyreneeën	-11.6314
▁scenario	-11.6314
▁tolerantie	-11.6314
▁transsylvanië	-11.6314
▁vakverbond	-11.6314
▁venezuela	-11.6314
molecuul	-11.6314
▁beantwoord	-11.6314
▁concentreer	-11.6314
▁haarlemmermeer	-11.6314
▁ragtime	-11.6314
▁stadsgezicht	-11.6314
▁antoine	-11.6314
▁maxentius	-11.6314
▁normandië	-11.6314
▁sophia	-11.6314
▁afkoeling	-11.6314
▁google	-11.6314
▁nucleo	-11.6314
▁private	-11.6314
▁saoedi	-11.6314
▁vormgeving	-11.6314
▁tienduizenden	-11.6314
▁overtreding	-11.6315
▁genoteerd	-11.6315
▁wél	-11.6315
▁afwisselend	-11.6315
▁hippolyt	-11.6315
▁bazel	-11.6315
▁indonesisch	-11.6315
capsule	-11.6315
▁corsica	-11.6315
▁hanteren	-11.6315
▁machtigste	-11.6315
▁zaadcellen	-11.6315
veronderstelling	-11.6316
▁scandinavische	-11.6316
▁regelmaat	-11.6317
glacialen	-11.6317
▁luxe	-11.6317
▁almere	-11.6318
▁medici	-11.6318
▁opgedragen	-11.6319
▁germanen	-11.6319
▁voelen	-11.6321
▁stuitte	-11.6328
overschrijd	-11.6329
campagne	-11.6333
▁buig	-11.6336
ensourcesoftware	-11.6339
baptist	-11.634
zelfbestuur	-11.6423
▁techn	-11.644
besluit	-11.652
commissaris	-11.6521
behoefte	-11.6521
priester	-11.6522
alfabet	-11.6522
ontwikkeld	-11.6522
klooster	-11.6522
verenigd	-11.6523
geluid	-11.6524
veilig	-11.653
dinosaur	-11.6573
erwt	-11.6592
▁uitbarsting	-11.6597
snelheden	-11.6608
▁steve	-11.6694
▁ambassade	-11.6695
▁biblio	-11.6698
opperbevelhebber	-11.6699
▁algerijns	-11.6699
▁antisemitisme	-11.6699
▁astronaut	-11.6699
▁batavia	-11.6699
▁betrouwbare	-11.6699
▁californisch	-11.6699
▁eerbetoon	-11.6699
▁elisabeth	-11.6699
▁emotione	-11.6699
▁exploitatie	-11.6699
▁frankfurt	-11.6699
▁geannexeerd	-11.6699
▁gekoloniseerd	-11.6699
▁hongaren	-11.6699
▁hoofdredacteur	-11.6699
▁karolingische	-11.6699
▁lyceum	-11.6699
▁muzikaal	-11.6699
▁onregelmatig	-11.6699
▁syntaxis	-11.6699
▁uitnodiging	-11.6699
▁vereenvoudigd	-11.6699
▁xenophon	-11.6699
▁aanbeveling	-11.6699
▁anekdot	-11.6699
▁archeologie	-11.6699
▁bevindingen	-11.6699
▁bezichtigen	-11.6699
▁concurreren	-11.6699
▁drijvend	-11.6699
▁license	-11.6699
▁observatie	-11.6699
▁vondelpark	-11.6699
▁voortbestaan	-11.6699
▁voyager	-11.6699
▁bewonderd	-11.6699
▁intensief	-11.6699
▁wagner	-11.6699
▁mexica	-11.6699
▁woordenschat	-11.6699
▁interieur	-11.6699
▁neutrale	-11.6699
▁toepassen	-11.6699
▁algebra	-11.6699
▁voordracht	-11.6699
lotharingen	-11.6699
▁seurat	-11.6699
▁gevoed	-11.6699
▁vloog	-11.6699
▁1806	-11.6699
▁aartsbisdom	-11.6699
▁presentatie	-11.6699
▁nicolae	-11.6699
▁rubber	-11.6699
▁kastelen	-11.6699
▁bemanning	-11.6699
▁4-6	-11.67
▁leraren	-11.67
ontsteking	-11.67
▁tertiair	-11.67
▁ritueel	-11.67
▁kooplieden	-11.67
▁kandidatenlijst	-11.67
▁echtscheiding	-11.67
▁altaar	-11.67
▁verzorgen	-11.67
▁floris	-11.67
▁proefschrift	-11.67
▁ritmisch	-11.67
▁katoen	-11.67
intensiteit	-11.6701
▁bnp	-11.6701
▁bewering	-11.6701
▁office	-11.6701
▁vervroegd	-11.6702
▁ndp	-11.6702
gestort	-11.6702
▁voorzichtig	-11.6703
▁erwten	-11.6703
bevolkingsaantal	-11.6705
▁scheidde	-11.6706
kantoren	-11.6708
▁verlegd	-11.671
conditie	-11.6714
▁herkend	-11.672
vertelling	-11.672
manager	-11.6724
full	-11.6729
praktis	-11.6731
▁7-6	-11.6732
passion	-11.6733
relderfgoedlijst	-11.6851
▁ideali	-11.686
bereid	-11.6867
gemakkelijk	-11.692
radical	-11.692
vervolging	-11.6921
manifest	-11.6921
alexander	-11.6921
revolutionaire	-11.6922
verwant	-11.6922
▁margaret	-11.693
zitten	-11.6971
enkelvoud	-11.701
levisieprogramma	-11.7043
▁opensource	-11.7073
provincia	-11.7099
emancipatie	-11.7099
schorpioen	-11.7099
▁asimov	-11.7099
▁autobiografie	-11.7099
▁concessie	-11.7099
▁evolueerde	-11.7099
▁exclusieve	-11.7099
▁geavanceerd	-11.7099
▁geschrapt	-11.7099
▁hasselt	-11.7099
▁hegemonie	-11.7099
▁kapitein	-11.7099
▁kleitabletten	-11.7099
▁kopenhagen	-11.7099
▁legendarisch	-11.7099
▁legislatu	-11.7099
▁magnesium	-11.7099
▁navrátilová	-11.7099
▁neutraliteit	-11.7099
▁orogenese	-11.7099
▁overkoepelend	-11.7099
▁sacrament	-11.7099
▁sciencefiction	-11.7099
▁sjiieten	-11.7099
▁stratigrafie	-11.7099
▁substantie	-11.7099
▁suggereert	-11.7099
▁taxonomie	-11.7099
▁tentoongesteld	-11.7099
▁tibetaans	-11.7099
▁wehrmacht	-11.7099
synthetisch	-11.7099
▁commando	-11.7099
▁donderdag	-11.7099
▁hernoemd	-11.7099
▁lelystad	-11.7099
▁marathon	-11.7099
▁mythische	-11.7099
▁review	-11.7099
▁verzekerd	-11.7099
▁civiele	-11.7099
▁copernic	-11.7099
▁regelgeving	-11.7099
▁uranium	-11.7099
gerechtigd	-11.7099
▁saskia	-11.7099
chileense	-11.7099
▁kortstondig	-11.7099
▁piloten	-11.7099
▁verbroken	-11.7099
▁vernield	-11.7099
position	-11.7099
▁tokio	-11.7099
▁meroving	-11.7099
▁gaulle	-11.7099
▁gehecht	-11.7099
▁uitstrekt	-11.7099
▁gitaar	-11.7099
▁opstandelingen	-11.7099
▁bloedbad	-11.7099
▁beloond	-11.7099
▁amstelveen	-11.7099
▁begroeiing	-11.7099
▁heksen	-11.7099
▁fungeerde	-11.7099
▁schepper	-11.7099
▁7-5	-11.7099
▁gedoog	-11.7099
▁optimal	-11.7099
▁breedtegraad	-11.7099
worth	-11.71
▁geboden	-11.71
client	-11.71
▁scheppen	-11.71
▁ideaal	-11.71
▁profeten	-11.71
▁letland	-11.71
▁redacteur	-11.71
▁[[	-11.71
▁stripverhaal	-11.71
▁nicea	-11.7101
tribune	-11.7101
▁verplaatsing	-11.7101
▁verenigen	-11.7101
▁verstoord	-11.7101
alpiene	-11.7101
▁debuut	-11.7101
▁racistisch	-11.7101
▁limiet	-11.7102
▁flavi	-11.7103
kabinetsformatie	-11.7104
veiligheidsraad	-11.7104
zegging	-11.7105
hagia	-11.711
▁gevleugeld	-11.7111
dekkingsreiziger	-11.7119
liberalisme	-11.7139
▁overdekt	-11.7145
▁ringvormig	-11.7156
▁paleontolo	-11.7188
▁misleid	-11.7195
randslamtoernooi	-11.7205
bloedige	-11.7226
oriëntatie	-11.7228
wijziging	-11.7233
woestijn	-11.7288
▁psychoanalyti	-11.7308
figuren	-11.7338
persoonlijk	-11.7338
bisdom	-11.7338
dialect	-11.7338
architectuur	-11.7339
vertaling	-11.7339
formule	-11.7341
▁naturalis	-11.7356
geperst	-11.737
bekend	-11.7385
fysisch	-11.7407
▁schommel	-11.742
stock	-11.7432
▁glaci	-11.7513
philosoph	-11.7516
registratie	-11.7516
reservoir	-11.7516
staatsgodsdienst	-11.7516
symmetrisch	-11.7516
▁artillerie	-11.7516
▁atmosferisch	-11.7516
▁beoordeling	-11.7516
▁bulgaren	-11.7516
▁churchill	-11.7516
▁ciconia	-11.7516
▁controversieel	-11.7516
▁criminaliteit	-11.7516
▁desgrange	-11.7516
▁douglas	-11.7516
▁faeröer	-11.7516
▁flexibel	-11.7516
▁football	-11.7516
▁formateur	-11.7516
▁gefinancierd	-11.7516
▁geneesmiddelen	-11.7516
▁geopenbaard	-11.7516
▁geplunderd	-11.7516
▁geïmporteerd	-11.7516
▁hindoeïstisch	-11.7516
▁infanterie	-11.7516
▁inwendige	-11.7516
▁keramiek	-11.7516
▁medicijnen	-11.7516
▁nagedachtenis	-11.7516
▁nazareth	-11.7516
▁ontsnapt	-11.7516
▁portugees	-11.7516
▁psychiater	-11.7516
▁psycholoog	-11.7516
▁ruhrgebied	-11.7516
▁sebastian	-11.7516
▁staroffice	-11.7516
▁stimuleerde	-11.7516
▁syndical	-11.7516
▁tegemoet	-11.7516
▁tevergeefs	-11.7516
▁uitbreiden	-11.7516
▁uitdrukkelijk	-11.7516
▁verlossing	-11.7516
▁walvissen	-11.7516
▁webbrowser	-11.7516
▁zamenhof	-11.7516
epidemie	-11.7516
▁aquarel	-11.7516
▁bevestigen	-11.7516
▁boekarest	-11.7516
▁münster	-11.7516
▁teruggekeerd	-11.7516
▁waasland	-11.7516
▁grandslamtitels	-11.7516
▁veluwe	-11.7516
communaut	-11.7516
▁halsema	-11.7516
▁triomf	-11.7516
begrotingstekort	-11.7516
calvinistisch	-11.7516
▁benaderd	-11.7516
▁mystiek	-11.7516
▁trompet	-11.7516
▁matisse	-11.7516
▁schaffen	-11.7516
▁dinosauria	-11.7516
▁enzym	-11.7516
▁twh	-11.7516
▁cantate	-11.7516
▁vanzelfsprekend	-11.7516
▁vichy	-11.7516
▁metafoor	-11.7516
▁dresden	-11.7516
▁bosnische	-11.7516
▁neiging	-11.7516
▁verzorgt	-11.7516
▁motto	-11.7516
▁zwangerschap	-11.7516
▁lijm	-11.7516
▁gesteentelagen	-11.7517
▁vetera	-11.7517
▁rtl	-11.7518
evaluatie	-11.7518
▁gallisch	-11.752
dossier	-11.7521
trauma	-11.7521
extensie	-11.7521
paleogeen	-11.7521
▁becker	-11.7522
▁tegengestelde	-11.7523
heidsoorlog	-11.753
verbranding	-11.7533
rás	-11.7547
ondernemer	-11.7566
▁quo	-11.7593
schappelijke	-11.7616
active	-11.762
dynamische	-11.7657
break	-11.7757
parlement	-11.7763
aanduiding	-11.7772
architect	-11.7772
diploma	-11.7772
frequentie	-11.7773
kandidaat	-11.7773
zilver	-11.7773
dochter	-11.7773
pvda	-11.7773
generatie	-11.7777
gedeelte	-11.778
gevaar	-11.7786
▁antwerp	-11.7828
zoeker	-11.7873
rlementariër	-11.7907
ceremonie	-11.7941
▁intelligent	-11.7947
sauriërs	-11.795
▁assemblee	-11.7951
convergentie	-11.7951
suitbreiding	-11.7951
▁caraïbisch	-11.7951
▁coronapandemie	-11.7951
▁dekolonisatie	-11.7951
▁dutch	-11.7951
▁gebarentaal	-11.7951
▁geconstateerd	-11.7951
▁gerenoveerd	-11.7951
▁geïllustreerd	-11.7951
▁honkbal	-11.7951
▁koeweit	-11.7951
▁koolhydraten	-11.7951
▁lissabon	-11.7951
▁malevitsj	-11.7951
▁mobiliteit	-11.7951
▁nabestaanden	-11.7951
▁ombudsman	-11.7951
▁oxidatie	-11.7951
▁saurischia	-11.7951
▁solidariteit	-11.7951
▁speculatie	-11.7951
▁totstandkoming	-11.7951
▁weierstrass	-11.7951
▁bandoneon	-11.7951
▁censuur	-11.7951
▁cilinder	-11.7951
▁compilatie	-11.7951
▁electoraa	-11.7951
▁geschorst	-11.7951
▁paradox	-11.7951
▁ruimtevaarder	-11.7951
▁topografie	-11.7951
prefect	-11.7951
▁educatie	-11.7951
▁florida	-11.7951
▁tevoorschijn	-11.7951
▁verschoven	-11.7951
▁bekijken	-11.7951
▁bestraft	-11.7951
▁hanteert	-11.7951
▁recessie	-11.7951
▁scheikundig	-11.7951
▁company	-11.7951
▁country	-11.7951
▁geprezen	-11.7951
▁hudson	-11.7951
▁inventaris	-11.7951
▁symboliek	-11.7951
▁toonhoogte	-11.7951
▁witloof	-11.7951
circulatie	-11.7951
▁1804	-11.7951
▁archieven	-11.7951
▁kweken	-11.7951
▁splitste	-11.7951
▁geopperd	-11.7951
▁psalm	-11.7951
▁profiteerde	-11.7951
▁apostel	-11.7951
▁dijkstal	-11.7951
▁young	-11.7951
▁libië	-11.7951
▁verhogen	-11.7951
▁grunge	-11.7951
▁pianist	-11.7951
▁aanbieden	-11.7951
▁rfc	-11.7951
▁uefa	-11.7951
▁parlementsleden	-11.7951
▁bebouwing	-11.7951
▁léon	-11.7951
▁turf	-11.7951
stoornis	-11.7951
▁kredietcrisis	-11.7951
steffi	-11.7951
▁vervult	-11.7951
▁afwijkt	-11.7951
▁krijgsgevangen	-11.7951
▁christoph	-11.7951
▁vermeden	-11.7951
▁architectonisch	-11.7951
▁resistent	-11.7952
▁hekel	-11.7952
▁1-0	-11.7952
▁chaotisch	-11.7952
▁onthuld	-11.7952
▁adviser	-11.7953
▁glorie	-11.7954
▁huwde	-11.7955
kroniek	-11.7955
recitati	-11.7956
▁verhandeld	-11.7958
veiling	-11.7959
▁verdun	-11.798
crash	-11.8044
schommelingen	-11.8052
uitkering	-11.8069
ergievoorziening	-11.8106
raadsleden	-11.8111
▁commission	-11.8139
▁0,0	-11.814
sturing	-11.8157
krimp	-11.8174
▁kapital	-11.8183
missionair	-11.8212
cirkel	-11.8227
nationaal	-11.8227
gewicht	-11.8227
wetgeving	-11.8227
resultaten	-11.8227
algemeen	-11.8228
circa	-11.8228
midden	-11.8229
gevraagd	-11.8241
39)	-11.83
gebrek	-11.8349
▁corrupt	-11.8401
▁reykjav	-11.8405
▁cavalerie	-11.8405
▁disassembler	-11.8405
▁kelvin	-11.8405
▁warschau	-11.8405
metamorfose	-11.8405
oekraïens	-11.8405
onvoorwaardelijk	-11.8405
▁achtervoegsel	-11.8405
▁ademhaling	-11.8405
▁agressieve	-11.8405
▁archosauria	-11.8405
▁astronomen	-11.8405
▁beoordeeld	-11.8405
▁bestudering	-11.8405
▁bewerkstelligen	-11.8405
▁beëdigd	-11.8405
▁bondscoach	-11.8405
▁calakmul	-11.8405
▁conservator	-11.8405
▁coördineren	-11.8405
▁democratisering	-11.8405
▁dendermonde	-11.8405
▁eredoctoraat	-11.8405
▁gabriel	-11.8405
▁gedoopt	-11.8405
▁gerechtshof	-11.8405
▁goebbels	-11.8405
▁göttingen	-11.8405
▁hooggerechtshof	-11.8405
▁mythologische	-11.8405
▁paralympisch	-11.8405
▁privileges	-11.8405
▁reflectie	-11.8405
▁rozendaal	-11.8405
▁signalen	-11.8405
▁sprinkhanen	-11.8405
▁squash	-11.8405
▁stockholm	-11.8405
▁tajiri	-11.8405
▁uitreiking	-11.8405
▁verhinderd	-11.8405
▁wolkenkrabber	-11.8405
matteüs	-11.8405
▁agassi	-11.8405
▁chinezen	-11.8405
▁gehuwd	-11.8405
▁handhaving	-11.8405
▁janeiro	-11.8405
▁onderhevig	-11.8405
▁ontgonnen	-11.8405
▁wantrouwen	-11.8405
▁eenzijdig	-11.8405
▁emigreerde	-11.8405
▁lennep	-11.8405
▁voldoet	-11.8405
▁pigment	-11.8405
▁wraak	-11.8405
▁barbara	-11.8405
▁noordpool	-11.8405
▁radiatie	-11.8405
▁arnold	-11.8405
▁heijden	-11.8405
ssamenstelling	-11.8405
▁encycliek	-11.8405
▁kleuter	-11.8405
▁ruimtesonde	-11.8405
▁column	-11.8405
▁reageren	-11.8405
▁eurazië	-11.8405
▁vervanger	-11.8405
▁amazone	-11.8405
▁verkrijgbaar	-11.8405
▁bewapening	-11.8405
▁mierlo	-11.8405
▁firma	-11.8405
▁visioen	-11.8405
▁county	-11.8405
▁teweeg	-11.8405
▁gedronken	-11.8405
vloeit	-11.8405
▁stefan	-11.8405
▁voorbehouden	-11.8405
westfalen	-11.8405
▁adriaan	-11.8406
▁schiep	-11.8406
▁iberisch	-11.8406
▁2-0	-11.8406
▁challenge	-11.8406
▁gelegerd	-11.8406
zwaai	-11.8406
▁schending	-11.8407
▁taxi	-11.8407
▁scott	-11.8407
onderbroken	-11.8407
▁global	-11.8408
▁houdbaar	-11.8421
▁oprichtte	-11.8423
margin	-11.844
betaald	-11.8441
tegraalrekening	-11.8449
gezant	-11.8458
beroepsonderwijs	-11.8468
▁mutaties	-11.8514
universi	-11.854
▁mislukt	-11.8625
▁akkad	-11.864
kunstenaars	-11.8689
▁werelderfgoed	-11.8696
evenwicht	-11.87
duidelijk	-11.87
aziatische	-11.8703
oeuvre	-11.8703
soldaten	-11.8704
world	-11.8704
één	-11.8706
ridder	-11.8712
▁dynamisch	-11.8722
▁werkgever	-11.8733
oxy	-11.8774
▁massal	-11.8791
noodzaakt	-11.882
zwerv	-11.8844
▁eiffel	-11.8881
▁spijker	-11.8881
appartement	-11.8881
chemicaliën	-11.8881
constructeur	-11.8881
dynamica	-11.8881
kennemerland	-11.8881
▁aangeklaagd	-11.8881
▁abrupt	-11.8881
▁afstamming	-11.8881
▁anciaux	-11.8881
▁antibiotica	-11.8881
▁barcelona	-11.8881
▁boulenger	-11.8881
▁cheliceren	-11.8881
▁commercieel	-11.8881
▁crucia	-11.8881
▁cézanne	-11.8881
▁diagnose	-11.8881
▁eichmann	-11.8881
▁faillissement	-11.8881
▁geconstrueerd	-11.8881
▁gedroogd	-11.8881
▁genomineerd	-11.8881
▁gerestaureerd	-11.8881
▁gesuggereerd	-11.8881
▁helsinki	-11.8881
▁henegouwen	-11.8881
▁ijmuiden	-11.8881
▁indrukwekkend	-11.8881
▁intercity	-11.8881
▁jubileum	-11.8881
▁machtsovername	-11.8881
▁maerlant	-11.8881
▁monopolie	-11.8881
▁onsterfelijk	-11.8881
▁orchestra	-11.8881
▁proletariaat	-11.8881
▁punjab	-11.8881
▁qaida	-11.8881
▁rampzalig	-11.8881
▁schlobach	-11.8881
▁significant	-11.8881
▁soennieten	-11.8881
▁sterftecijfer	-11.8881
▁stroomopwaarts	-11.8881
▁torvalds	-11.8881
▁volksgezondheid	-11.8881
▁vulkanisme	-11.8881
▁wedergeboorte	-11.8881
▁xenofobie	-11.8881
paradigma	-11.8881
▁armeense	-11.8881
▁declinatie	-11.8881
▁haakjes	-11.8881
▁maritieme	-11.8881
▁prioriteit	-11.8881
▁tapijt	-11.8881
▁vishnu	-11.8881
sgewijs	-11.8881
▁beethoven	-11.8881
▁constans	-11.8881
▁nadrukkelijk	-11.8881
▁neoclassicist	-11.8881
▁valkenburg	-11.8881
gegrepen	-11.8881
▁edition	-11.8881
▁verrassend	-11.8881
▁parameters	-11.8881
▁prestige	-11.8881
▁vertraging	-11.8881
taferelen	-11.8881
▁comeback	-11.8881
▁ruimtevaartuig	-11.8881
▁turbo	-11.8881
fabricage	-11.8881
▁schoof	-11.8881
▁fungeren	-11.8881
▁vertolk	-11.8881
▁numeriek	-11.8881
▁genegeerd	-11.8881
concern	-11.8881
▁mogendheid	-11.8881
▁alaska	-11.8881
▁noordoostelijk	-11.8881
▁verstrekt	-11.8881
▁1642	-11.8881
▁onwetend	-11.8881
▁hooft	-11.8881
▁subjectie	-11.8881
▁pavlov	-11.8881
▁puerto	-11.8882
heidsverklaring	-11.8882
▁telegram	-11.8882
▁aanvulling	-11.8882
▁lewis	-11.8882
▁lambert	-11.8882
dynamie	-11.8882
felix	-11.8882
▁novelle	-11.8882
▁bekeken	-11.8882
▁organist	-11.8882
▁vindplaats	-11.8882
▁elzas	-11.8882
▁vernieuwend	-11.8882
▁dokter	-11.8883
▁ironisch	-11.8883
▁bèta	-11.8883
▁grind	-11.8883
http	-11.8884
▁zwols	-11.8884
▁build	-11.8884
archae	-11.8885
▁hanteerde	-11.8885
▁warmbloedig	-11.8886
migrant	-11.8895
sturm	-11.8931
iformes	-11.8944
▁verliefd	-11.8949
worp	-11.8971
▁fossiel	-11.9128
michiels	-11.9171
kampioen	-11.9197
stabiele	-11.9203
café	-11.9203
opvatting	-11.9203
concept	-11.9204
psycho	-11.9208
▁oriënt	-11.9223
streng	-11.9337
huize	-11.9351
gabriël	-11.9381
mitridate	-11.9381
▁anatolisch	-11.9381
▁antisemitische	-11.9381
▁aphrodite	-11.9381
▁arabica	-11.9381
▁bijvoeglijk	-11.9381
▁bluegrass	-11.9381
▁business	-11.9381
▁camouflage	-11.9381
▁confessionele	-11.9381
▁continuïteit	-11.9381
▁dichtstbij	-11.9381
▁dissident	-11.9381
▁dodenherdenking	-11.9381
▁etniciteit	-11.9381
▁eusebius	-11.9381
▁euthanasie	-11.9381
▁explorer	-11.9381
▁failliet	-11.9381
▁festiviteiten	-11.9381
▁geëxploiteerd	-11.9381
▁gravitatie	-11.9381
▁holoceen	-11.9381
▁ineenstort	-11.9381
▁irrigatie	-11.9381
▁kernfusie	-11.9381
▁koolhaas	-11.9381
▁krishna	-11.9381
▁krokodillen	-11.9381
▁magazine	-11.9381
▁motivatie	-11.9381
▁ongeschikt	-11.9381
▁oxford	-11.9381
▁pakistaanse	-11.9381
▁ptolemaeus	-11.9381
▁puntentelling	-11.9381
▁rabbijn	-11.9381
▁signac	-11.9381
▁toebedeeld	-11.9381
▁toevoegen	-11.9381
▁ultieme	-11.9381
▁unaniem	-11.9381
▁vaardigheden	-11.9381
▁verstedelijking	-11.9381
▁zomermaanden	-11.9381
▁zoroastrisme	-11.9381
▁zürich	-11.9381
▁hawaï	-11.9381
▁karpaten	-11.9381
▁komnenos	-11.9381
▁verrassing	-11.9381
▁verwikkeld	-11.9381
omorpha	-11.9381
▁benoemt	-11.9381
▁elektronica	-11.9381
▁herkozen	-11.9381
▁peterselie	-11.9381
▁profiteren	-11.9381
▁zetmeel	-11.9381
▁aanvullend	-11.9381
▁apache	-11.9381
▁rendement	-11.9381
▁sponsor	-11.9381
▁cassatie	-11.9381
▁fenicisch	-11.9381
▁beweeglijk	-11.9381
▁bovennatuurlijk	-11.9381
▁langgerekt	-11.9381
▁isolement	-11.9381
▁bergketens	-11.9381
▁paradijs	-11.9381
▁citaat	-11.9381
▁muggen	-11.9381
criterium	-11.9381
▁benaderen	-11.9381
▁symbolisme	-11.9381
▁arrestatie	-11.9381
macedonië	-11.9381
▁lingua	-11.9381
▁presenteren	-11.9382
▁gelijkaardig	-11.9382
▁schlager	-11.9382
▁cabaret	-11.9382
toronto	-11.9382
▁tunesië	-11.9382
elsevier	-11.9382
ensemble	-11.9382
staatsinrichting	-11.9382
schandaal	-11.9382
navigatie	-11.9382
▁reiter	-11.9382
branche	-11.9382
▁adviseer	-11.9383
spreuk	-11.9383
merwede	-11.9384
religio	-11.9384
▁gelieerd	-11.9386
vweu	-11.9388
metafysica	-11.9389
homme	-11.9407
gewricht	-11.9442
▁grootschalig	-11.9453
hyp	-11.9459
▁1796	-11.9467
voedingsmiddelen	-11.947
raadslid	-11.95
▁1855	-11.9501
adrianus	-11.9506
▁verregaand	-11.9512
atlanti	-11.9525
plechtigheid	-11.955
eginselprogramma	-11.9573
omvattende	-11.9578
instant	-11.9599
nstantino	-11.9668
zitting	-11.9694
schrijft	-11.9723
concentratie	-11.9729
specifiek	-11.9729
volgorde	-11.973
tijdperk	-11.973
▁landskampioen	-11.9733
▁hongaars	-11.9768
gewikkeld	-11.9835
geschakeld	-11.9874
obelprijswinnaar	-11.9895
▁afwezig	-11.9901
gletsjer	-11.9905
fontein	-11.9907
besprekingen	-11.9908
hochschule	-11.9908
kwalitatief	-11.9908
schorseneren	-11.9908
tethysoceaan	-11.9908
vliegkampschepen	-11.9908
xerxes	-11.9908
zigeuners	-11.9908
▁aanbevolen	-11.9908
▁ambtstermijn	-11.9908
▁aristocratisch	-11.9908
▁armstrong	-11.9908
▁asielzoekers	-11.9908
▁autobiografisch	-11.9908
▁britannia	-11.9908
▁brücke	-11.9908
▁capitulatie	-11.9908
▁chocolade	-11.9908
▁compiègne	-11.9908
▁concentreren	-11.9908
▁controversiële	-11.9908
▁corneille	-11.9908
▁definiëren	-11.9908
▁diocletianus	-11.9908
▁eenentwintigste	-11.9908
▁geëvolueerd	-11.9908
▁geëxporteerd	-11.9908
▁gilgamesj	-11.9908
▁homoseksuelen	-11.9908
▁illegaal	-11.9908
▁kiesdrempel	-11.9908
▁knaagdier	-11.9908
▁laërtius	-11.9908
▁madagaskar	-11.9908
▁mcenroe	-11.9908
▁netscape	-11.9908
▁onbruik	-11.9908
▁palestrina	-11.9908
▁reflex	-11.9908
▁roncalli	-11.9908
▁rozemarijn	-11.9908
▁santiago	-11.9908
▁spontane	-11.9908
▁successieoorlog	-11.9908
▁surrealisten	-11.9908
▁terrestrisch	-11.9908
▁thorbecke	-11.9908
▁ultraviolet	-11.9908
▁volksverhuizing	-11.9908
▁woensdag	-11.9908
▁zutphen	-11.9908
▁ágnes	-11.9908
apostolisch	-11.9908
▁afwijzing	-11.9908
▁asfalt	-11.9908
▁desalniettemin	-11.9908
▁doukas	-11.9908
▁hellenistische	-11.9908
▁plaatsvervange	-11.9908
▁ricimer	-11.9908
▁splitsen	-11.9908
▁xhosa	-11.9908
▁bologna	-11.9908
▁initiatiefnemer	-11.9908
▁krediet	-11.9908
▁suikerriet	-11.9908
▁belijden	-11.9908
▁hendrick	-11.9908
▁verschaft	-11.9908
▁hertrouwde	-11.9908
▁plesman	-11.9908
geschonden	-11.9908
▁munitie	-11.9908
▁noemenswaardig	-11.9908
▁scoort	-11.9908
▁gegroepeerd	-11.9908
▁lucebert	-11.9908
▁stanley	-11.9908
▁bedreven	-11.9908
▁koffiebonen	-11.9908
▁bemoeilijkt	-11.9908
▁bosnië	-11.9908
▁archipel	-11.9908
▁functioneert	-11.9908
▁promoten	-11.9908
▁bijdroeg	-11.9908
▁spraakgebruik	-11.9908
▁entiteiten	-11.9908
▁francesco	-11.9908
▁pangea	-11.9908
▁rechtsgeleerd	-11.9908
▁für	-11.9908
▁oefende	-11.9908
▁severus	-11.9908
▁rechthoekig	-11.9908
▁roltong	-11.9908
▁clark	-11.9908
psyche	-11.9908
petersburg	-11.9908
british	-11.9908
▁baäl	-11.9908
▁repressie	-11.9909
▁bewaker	-11.991
vermenging	-11.9911
pearl	-11.9912
▁lineair	-11.9913
walther	-11.9913
vaardigde	-11.9914
carrier	-11.9948
textielindustrie	-12.0007
sequentie	-12.0024
▁resulteer	-12.0093
▁michiel	-12.0134
margaretha	-12.0136
▁hexadecima	-12.0183
afgekort	-12.0284
makelaar	-12.0285
compiler	-12.0285
percentage	-12.0285
australië	-12.0286
premier	-12.0286
kritiek	-12.0286
▁fabri	-12.0313
verblijf	-12.0356
▁professione	-12.0454
revolution	-12.0462
▁amnestie	-12.0462
▁aleksandr	-12.0463
▁ontginning	-12.0463
gesellschaft	-12.0463
helikopter	-12.0463
odyssee	-12.0463
roubaix	-12.0463
sjapoer	-12.0463
telescopen	-12.0463
theoreticus	-12.0463
ïndustrialiseerd	-12.0463
▁aardatmosfeer	-12.0463
▁airlines	-12.0463
▁allochtone	-12.0463
▁ambulance	-12.0463
▁anaxagoras	-12.0463
▁appèl	-12.0463
▁astronoom	-12.0463
▁aswoensdag	-12.0463
▁bioscopen	-12.0463
▁boedapest	-12.0463
▁boekdrukkunst	-12.0463
▁byzantijnen	-12.0463
▁compensatie	-12.0463
▁conditionering	-12.0463
▁driekwart	-12.0463
▁economen	-12.0463
▁ecuador	-12.0463
▁enthousiasme	-12.0463
▁eugenetica	-12.0463
▁fiscale	-12.0463
▁gecompileerd	-12.0463
▁gereduceerd	-12.0463
▁geselecteerd	-12.0463
▁ijshockey	-12.0463
▁kasjmir	-12.0463
▁khusro	-12.0463
▁library	-12.0463
▁ludendorff	-12.0463
▁mahayana	-12.0463
▁moeizame	-12.0463
▁neoclassicisme	-12.0463
▁nirvana	-12.0463
▁noormannen	-12.0463
▁onschuldig	-12.0463
▁ornithischia	-12.0463
▁overschreden	-12.0463
▁release	-12.0463
▁repertoire	-12.0463
▁rhodos	-12.0463
▁samengevat	-12.0463
▁sanskriet	-12.0463
▁seksualiteit	-12.0463
▁seltsjoek	-12.0463
▁steekproef	-12.0463
▁superioriteit	-12.0463
▁synagoge	-12.0463
▁technology	-12.0463
▁uitoefening	-12.0463
▁universeel	-12.0463
▁verhinderen	-12.0463
▁vervreemd	-12.0463
▁wielrenner	-12.0463
▁wijngaard	-12.0463
enterprise	-12.0463
▁akkerbouw	-12.0463
▁assyrië	-12.0463
▁autochtone	-12.0463
▁bakermat	-12.0463
▁dimensie	-12.0463
▁erfurt	-12.0463
▁gefuseerd	-12.0463
▁habitat	-12.0463
▁protectora	-12.0463
▁radioactief	-12.0463
▁siberië	-12.0463
▁verdamping	-12.0463
